
#ifndef EXTRACTOR_MODEL_DATA_H
#define EXTRACTOR_MODEL_DATA_H

const unsigned char extractor_model[] = {
 0x1c, 0x00, 0x00, 0x00, 0x54, 0x46, 0x4c, 0x33, 0x14, 0x00, 0x20, 0x00, 
 0x1c, 0x00, 0x18, 0x00, 0x14, 0x00, 0x10, 0x00, 0x0c, 0x00, 0x00, 0x00, 
 0x08, 0x00, 0x04, 0x00, 0x14, 0x00, 0x00, 0x00, 0x1c, 0x00, 0x00, 0x00, 
 0x88, 0x00, 0x00, 0x00, 0xe0, 0x00, 0x00, 0x00, 0x58, 0x32, 0x00, 0x00, 
 0x68, 0x32, 0x00, 0x00, 0xfc, 0x36, 0x00, 0x00, 0x03, 0x00, 0x00, 0x00, 
 0x01, 0x00, 0x00, 0x00, 0x04, 0x00, 0x00, 0x00, 0x5e, 0xcd, 0xff, 0xff, 
 0x0c, 0x00, 0x00, 0x00, 0x1c, 0x00, 0x00, 0x00, 0x38, 0x00, 0x00, 0x00, 
 0x0f, 0x00, 0x00, 0x00, 0x73, 0x65, 0x72, 0x76, 0x69, 0x6e, 0x67, 0x5f, 
 0x64, 0x65, 0x66, 0x61, 0x75, 0x6c, 0x74, 0x00, 0x01, 0x00, 0x00, 0x00, 
 0x04, 0x00, 0x00, 0x00, 0x94, 0xff, 0xff, 0xff, 0x06, 0x00, 0x00, 0x00, 
 0x04, 0x00, 0x00, 0x00, 0x07, 0x00, 0x00, 0x00, 0x66, 0x6c, 0x61, 0x74, 
 0x74, 0x65, 0x6e, 0x00, 0x01, 0x00, 0x00, 0x00, 0x04, 0x00, 0x00, 0x00, 
 0x2e, 0xce, 0xff, 0xff, 0x04, 0x00, 0x00, 0x00, 0x0c, 0x00, 0x00, 0x00, 
 0x63, 0x6f, 0x6e, 0x76, 0x32, 0x64, 0x5f, 0x69, 0x6e, 0x70, 0x75, 0x74, 
 0x00, 0x00, 0x00, 0x00, 0x02, 0x00, 0x00, 0x00, 0x34, 0x00, 0x00, 0x00, 
 0x04, 0x00, 0x00, 0x00, 0xdc, 0xff, 0xff, 0xff, 0x09, 0x00, 0x00, 0x00, 
 0x04, 0x00, 0x00, 0x00, 0x13, 0x00, 0x00, 0x00, 0x43, 0x4f, 0x4e, 0x56, 
 0x45, 0x52, 0x53, 0x49, 0x4f, 0x4e, 0x5f, 0x4d, 0x45, 0x54, 0x41, 0x44, 
 0x41, 0x54, 0x41, 0x00, 0x08, 0x00, 0x0c, 0x00, 0x08, 0x00, 0x04, 0x00, 
 0x08, 0x00, 0x00, 0x00, 0x08, 0x00, 0x00, 0x00, 0x04, 0x00, 0x00, 0x00, 
 0x13, 0x00, 0x00, 0x00, 0x6d, 0x69, 0x6e, 0x5f, 0x72, 0x75, 0x6e, 0x74, 
 0x69, 0x6d, 0x65, 0x5f, 0x76, 0x65, 0x72, 0x73, 0x69, 0x6f, 0x6e, 0x00, 
 0x0a, 0x00, 0x00, 0x00, 0x74, 0x31, 0x00, 0x00, 0x6c, 0x31, 0x00, 0x00, 
 0x54, 0x31, 0x00, 0x00, 0xdc, 0x00, 0x00, 0x00, 0xac, 0x00, 0x00, 0x00, 
 0xa4, 0x00, 0x00, 0x00, 0x9c, 0x00, 0x00, 0x00, 0x94, 0x00, 0x00, 0x00, 
 0x74, 0x00, 0x00, 0x00, 0x04, 0x00, 0x00, 0x00, 0xd2, 0xce, 0xff, 0xff, 
 0x04, 0x00, 0x00, 0x00, 0x60, 0x00, 0x00, 0x00, 0x10, 0x00, 0x00, 0x00, 
 0x00, 0x00, 0x00, 0x00, 0x08, 0x00, 0x0e, 0x00, 0x08, 0x00, 0x04, 0x00, 
 0x08, 0x00, 0x00, 0x00, 0x10, 0x00, 0x00, 0x00, 0x24, 0x00, 0x00, 0x00, 
 0x00, 0x00, 0x06, 0x00, 0x08, 0x00, 0x04, 0x00, 0x06, 0x00, 0x00, 0x00, 
 0x04, 0x00, 0x00, 0x00, 0x00, 0x00, 0x00, 0x00, 0x0c, 0x00, 0x18, 0x00, 
 0x14, 0x00, 0x10, 0x00, 0x0c, 0x00, 0x04, 0x00, 0x0c, 0x00, 0x00, 0x00, 
 0x15, 0x5c, 0xb2, 0x1b, 0x34, 0xbb, 0x63, 0x12, 0x02, 0x00, 0x00, 0x00, 
 0x02, 0x00, 0x00, 0x00, 0x04, 0x00, 0x00, 0x00, 0x06, 0x00, 0x00, 0x00, 
 0x32, 0x2e, 0x32, 0x30, 0x2e, 0x30, 0x00, 0x00, 0x3e, 0xcf, 0xff, 0xff, 
 0x04, 0x00, 0x00, 0x00, 0x10, 0x00, 0x00, 0x00, 0x31, 0x2e, 0x35, 0x2e, 
 0x30, 0x00, 0x00, 0x00, 0x00, 0x00, 0x00, 0x00, 0x00, 0x00, 0x00, 0x00, 
 0xcc, 0xca, 0xff, 0xff, 0xd0, 0xca, 0xff, 0xff, 0xd4, 0xca, 0xff, 0xff, 
 0x66, 0xcf, 0xff, 0xff, 0x04, 0x00, 0x00, 0x00, 0x20, 0x00, 0x00, 0x00, 
 0x0e, 0xfb, 0x0b, 0x3c, 0x38, 0x2e, 0xd7, 0x3c, 0x98, 0xd0, 0x02, 0x3c, 
 0x1e, 0x21, 0x6e, 0x3c, 0x9a, 0xd0, 0xfc, 0x3c, 0xa2, 0xbf, 0xd8, 0xb9, 
 0xbd, 0xe0, 0x1a, 0x3b, 0xff, 0xa5, 0x11, 0xbb, 0x92, 0xcf, 0xff, 0xff, 
 0x04, 0x00, 0x00, 0x00, 0x60, 0x30, 0x00, 0x00, 0xd6, 0x61, 0x99, 0x3c, 
 0xb4, 0x28, 0x87, 0x3c, 0xbc, 0x59, 0x0a, 0x3d, 0xec, 0x0d, 0xbd, 0x3b, 
 0xb4, 0x87, 0x21, 0x3d, 0xd3, 0xd7, 0xec, 0x3c, 0xb7, 0x0a, 0x60, 0xbc, 
 0x7b, 0x6b, 0x68, 0x3d, 0x0b, 0x33, 0x93, 0xbc, 0x28, 0x92, 0xca, 0x3c, 
 0xec, 0xa1, 0x33, 0x3d, 0x5c, 0xc7, 0x9a, 0xbc, 0x4c, 0xa4, 0xb8, 0x3c, 
 0x68, 0xd4, 0x11, 0xba, 0xb3, 0x35, 0xca, 0xbb, 0xc0, 0xa9, 0x43, 0x3c, 
 0xe1, 0xe0, 0xf7, 0xb9, 0x54, 0x26, 0x00, 0xbd, 0x7d, 0xc3, 0x60, 0x3b, 
 0xd6, 0x27, 0x79, 0x3b, 0x82, 0x27, 0x0b, 0xbd, 0x78, 0xab, 0x66, 0x3c, 
 0x45, 0xfd, 0x9c, 0xbc, 0x4c, 0x92, 0x8a, 0x3c, 0xae, 0xb6, 0xc8, 0x3c, 
 0xc9, 0x6a, 0x23, 0xbb, 0x72, 0x02, 0xd4, 0xbc, 0xf8, 0x72, 0xfe, 0x3c, 
 0x45, 0xae, 0xca, 0xbc, 0x63, 0x4c, 0x3c, 0xbd, 0xfd, 0x2d, 0x2c, 0x3d, 
 0x10, 0x7f, 0xa4, 0x3c, 0xbf, 0x67, 0xd5, 0xbb, 0x61, 0xbe, 0x39, 0x3d, 
 0x4d, 0x85, 0xa5, 0x3c, 0x92, 0xa9, 0x8d, 0xbc, 0xf8, 0xe5, 0xb2, 0x3c, 
 0x88, 0x42, 0x21, 0x3d, 0xa8, 0xc1, 0x0f, 0x3a, 0xac, 0x57, 0x10, 0xbd, 
 0x37, 0xfc, 0xbf, 0x3c, 0xd4, 0xed, 0x0d, 0xbd, 0xce, 0x69, 0xcc, 0xbc, 
 0xb6, 0x7e, 0x07, 0x3d, 0x37, 0x44, 0xe5, 0xbc, 0x9c, 0xb8, 0xa3, 0xbc, 
 0x10, 0xb5, 0x46, 0xbc, 0xb9, 0xd0, 0x59, 0x3c, 0x6c, 0x67, 0x06, 0xb7, 
 0xbd, 0x2e, 0x0b, 0xbd, 0xb4, 0x65, 0x3f, 0xbd, 0x41, 0x45, 0x83, 0x3c, 
 0x3c, 0x22, 0xa8, 0x3c, 0xe8, 0xdd, 0x40, 0xbd, 0xed, 0x80, 0x42, 0xbd, 
 0x87, 0x31, 0xe6, 0x3c, 0xbe, 0x4c, 0xa0, 0x3c, 0x8e, 0x10, 0xf7, 0x3c, 
 0x3f, 0x5b, 0xa0, 0x3c, 0x56, 0xf6, 0x3b, 0xbd, 0xfb, 0xb8, 0xf6, 0x3c, 
 0xfb, 0xcb, 0xa0, 0x3c, 0x6e, 0x87, 0xf3, 0xbc, 0xde, 0x11, 0x2d, 0x3c, 
 0x8a, 0x76, 0x24, 0xbd, 0x8d, 0x9e, 0xb1, 0x3c, 0xbc, 0x6d, 0xaf, 0x3c, 
 0x46, 0xb6, 0x09, 0xbc, 0xfb, 0xe2, 0x95, 0x3c, 0x5a, 0x60, 0x83, 0xba, 
 0x1a, 0x8d, 0x39, 0xbd, 0xdb, 0xce, 0xab, 0xbc, 0x2f, 0x4f, 0x29, 0xbc, 
 0xdc, 0xc2, 0x9d, 0xbc, 0xac, 0x82, 0x6f, 0x3c, 0x31, 0x53, 0xb7, 0x3b, 
 0x45, 0xee, 0x33, 0xbd, 0xa6, 0xe7, 0xb1, 0x3c, 0x07, 0x31, 0x08, 0x3d, 
 0x79, 0x2e, 0x39, 0xbd, 0x42, 0xe3, 0x84, 0x3c, 0xa2, 0x63, 0xa6, 0xbc, 
 0x61, 0x33, 0x23, 0xbd, 0xf7, 0xec, 0xb1, 0xbc, 0x92, 0xb4, 0xaa, 0x3c, 
 0x06, 0xea, 0x25, 0xbd, 0x34, 0x50, 0x08, 0xbd, 0xd3, 0x63, 0x32, 0xbd, 
 0x44, 0x8f, 0xf1, 0xbc, 0x13, 0x16, 0x4f, 0xbd, 0x3e, 0x17, 0x3f, 0xbd, 
 0x7b, 0x3a, 0x09, 0xbb, 0xbc, 0x2e, 0x93, 0xbb, 0x66, 0xeb, 0xd1, 0x3c, 
 0xa9, 0x44, 0xb7, 0xbc, 0x9f, 0xd1, 0x40, 0x3c, 0xb4, 0x68, 0x8f, 0xbc, 
 0x11, 0x2d, 0xa9, 0xbb, 0x97, 0x2d, 0x31, 0xba, 0xa2, 0xfe, 0x63, 0x3c, 
 0x2b, 0xa3, 0x13, 0xbd, 0x51, 0x61, 0x37, 0xbd, 0xe3, 0x80, 0x2c, 0xbb, 
 0x1a, 0x04, 0x99, 0xba, 0x81, 0x48, 0x1c, 0xbd, 0x79, 0xcf, 0x57, 0x3c, 
 0xfe, 0x43, 0x2d, 0xbd, 0x95, 0x5d, 0x04, 0x3b, 0x81, 0x61, 0xb3, 0xbb, 
 0xfa, 0x8b, 0xe8, 0x3c, 0xc1, 0x6b, 0x90, 0x3b, 0xe6, 0x1c, 0x34, 0xbd, 
 0xc3, 0xe5, 0xd6, 0xbc, 0x97, 0xb2, 0x15, 0xbd, 0x51, 0xc7, 0x40, 0xbb, 
 0x4d, 0xce, 0x35, 0xbd, 0xc9, 0x12, 0x87, 0x3c, 0x39, 0xb5, 0x2d, 0xbd, 
 0x38, 0x88, 0x0d, 0x3d, 0xad, 0xf7, 0x26, 0xbc, 0x26, 0x57, 0xfc, 0xbc, 
 0x8f, 0xe8, 0xb5, 0xbc, 0x90, 0xba, 0x7c, 0xbc, 0xb0, 0xf0, 0x1b, 0xbd, 
 0x4c, 0x1d, 0xc2, 0x3c, 0xa9, 0x50, 0x6b, 0x3c, 0xb9, 0xdd, 0x38, 0xbc, 
 0x98, 0xf9, 0x87, 0xbc, 0x4e, 0x97, 0x21, 0xbd, 0xef, 0x75, 0x7d, 0xbb, 
 0x67, 0x81, 0x2f, 0x3c, 0x39, 0x70, 0x5b, 0xbc, 0x61, 0x60, 0x39, 0x3c, 
 0x7e, 0x5b, 0x58, 0xbc, 0x52, 0xea, 0x04, 0xbd, 0xe9, 0x0d, 0xc4, 0x3c, 
 0x4b, 0x9c, 0x2a, 0xbd, 0x7d, 0xe3, 0x04, 0xbd, 0x79, 0xf6, 0xb6, 0xbc, 
 0x84, 0x3e, 0x6a, 0x3c, 0x3e, 0x08, 0x39, 0x3c, 0xf5, 0xb9, 0x16, 0xbd, 
 0xd8, 0x82, 0xd5, 0xbc, 0x80, 0x17, 0x8a, 0xbc, 0x1b, 0xc6, 0xfa, 0xbc, 
 0xb3, 0xf4, 0xd8, 0xbc, 0xc2, 0x27, 0xff, 0x3c, 0xc8, 0x88, 0x09, 0x3d, 
 0x3a, 0x73, 0x50, 0xbc, 0xf9, 0x3d, 0xe7, 0x3b, 0x72, 0x76, 0xe3, 0xbc, 
 0x65, 0xcf, 0xce, 0xbb, 0x53, 0x98, 0xad, 0x3c, 0x91, 0xaa, 0x33, 0xbd, 
 0xda, 0xa2, 0x02, 0x3d, 0x2f, 0x7f, 0x86, 0x3c, 0xa4, 0x6e, 0x4a, 0x3c, 
 0xce, 0x18, 0xa2, 0x38, 0xa7, 0xe3, 0xd2, 0xbc, 0x45, 0xe4, 0x90, 0x3c, 
 0x10, 0x34, 0xae, 0xbc, 0x0f, 0x84, 0x82, 0x3c, 0x0b, 0x59, 0x88, 0x3c, 
 0xa5, 0x54, 0xa2, 0x3c, 0xf2, 0x1d, 0x5a, 0xbd, 0xc2, 0x0b, 0xa0, 0x3c, 
 0xb4, 0xd0, 0xc3, 0xbc, 0x67, 0x24, 0x2f, 0xbd, 0xf2, 0x00, 0x38, 0x3c, 
 0xc4, 0xd7, 0xd4, 0x39, 0xe6, 0xbe, 0x90, 0x3c, 0xd1, 0xf3, 0xfe, 0x3c, 
 0x69, 0x0c, 0xd7, 0xbb, 0xd8, 0xc2, 0x91, 0xbb, 0xe2, 0x94, 0xfc, 0xbc, 
 0x98, 0x2e, 0xdf, 0xbc, 0x1d, 0x7d, 0xf2, 0xbb, 0x24, 0x0d, 0x93, 0x3c, 
 0x4f, 0x54, 0xf4, 0xbc, 0xa0, 0xee, 0x4a, 0xbc, 0x3d, 0xea, 0xa7, 0x3c, 
 0xb2, 0x73, 0x93, 0xbc, 0xda, 0xec, 0xc6, 0x3c, 0x36, 0x09, 0xb6, 0x3c, 
 0xf3, 0xa3, 0x3c, 0xbd, 0xf6, 0x5b, 0x9d, 0xbc, 0xe0, 0x15, 0x03, 0xbd, 
 0x14, 0xbb, 0x2c, 0x3b, 0x2d, 0xf9, 0xe8, 0x3b, 0x08, 0x77, 0x02, 0xbd, 
 0x38, 0x73, 0x42, 0xbd, 0x68, 0x66, 0xe7, 0x3b, 0x1b, 0x12, 0xa1, 0xbc, 
 0xf5, 0x6a, 0x0f, 0xbd, 0x0e, 0x83, 0xb9, 0x3b, 0xe1, 0x54, 0x65, 0xbc, 
 0x12, 0x3c, 0xcf, 0x3a, 0x25, 0x83, 0xd8, 0x3c, 0xb4, 0x8f, 0x1d, 0xbc, 
 0xb0, 0x8e, 0x02, 0xbb, 0xee, 0x1e, 0x3e, 0xbd, 0x0f, 0xce, 0x41, 0xbd, 
 0xcb, 0x9e, 0x27, 0xbd, 0x69, 0x9b, 0x48, 0xbd, 0x80, 0x16, 0x46, 0xbd, 
 0xfc, 0xf3, 0xe9, 0x3c, 0x01, 0xbc, 0x0c, 0xbd, 0x58, 0x4d, 0x49, 0xbd, 
 0x40, 0x4f, 0x0c, 0xbc, 0xc2, 0x43, 0x0e, 0xbd, 0xf4, 0xae, 0x2f, 0x3b, 
 0x74, 0x36, 0x01, 0x3c, 0x27, 0x7f, 0xe2, 0x3c, 0x97, 0xb5, 0x8e, 0x3c, 
 0x67, 0xff, 0x97, 0x3c, 0xaa, 0xed, 0xca, 0x3b, 0xb8, 0xe5, 0xed, 0xbc, 
 0xba, 0x4a, 0xbb, 0xbc, 0x19, 0x09, 0x1d, 0xbd, 0xd1, 0x66, 0x0e, 0xbd, 
 0xa0, 0xb5, 0x84, 0xbb, 0xea, 0x5f, 0xcc, 0xbc, 0xff, 0x20, 0x36, 0xbb, 
 0x63, 0xc6, 0x8c, 0xba, 0xe8, 0xa4, 0xf8, 0x3c, 0x9a, 0xae, 0x17, 0x3c, 
 0x44, 0x53, 0x04, 0xbd, 0x8e, 0xaf, 0x8d, 0x3c, 0x3b, 0x40, 0x3f, 0xbd, 
 0xa2, 0x45, 0x07, 0xbd, 0x6d, 0xac, 0xa1, 0xbc, 0x25, 0x96, 0x33, 0xbd, 
 0xe5, 0x73, 0xea, 0xbc, 0x14, 0x6b, 0x19, 0xbd, 0xe3, 0x11, 0x49, 0xbd, 
 0x0e, 0x3b, 0x1b, 0xbd, 0xfd, 0xdd, 0x08, 0xba, 0xa3, 0x2b, 0x5c, 0xbc, 
 0x3d, 0xd1, 0x1b, 0xbd, 0xf7, 0x6d, 0xa0, 0xbc, 0x63, 0xd9, 0xb9, 0xbc, 
 0x07, 0xdb, 0x6c, 0xbc, 0x81, 0x30, 0xbf, 0x3c, 0x59, 0xb0, 0xa1, 0x3c, 
 0xb5, 0xe5, 0xd5, 0xbc, 0x7c, 0xbf, 0x3a, 0xbc, 0x1f, 0xa7, 0x53, 0xbd, 
 0x45, 0x3e, 0xe6, 0x3c, 0x00, 0x98, 0x40, 0xbd, 0xa3, 0x0b, 0x01, 0xbd, 
 0xf2, 0x0c, 0x3d, 0xbd, 0x1c, 0x8d, 0xf6, 0xbc, 0x23, 0xe6, 0x03, 0xbd, 
 0xa2, 0xba, 0x34, 0xbd, 0x0a, 0x21, 0x43, 0xbc, 0xb5, 0x37, 0x68, 0x3c, 
 0x79, 0x45, 0x2d, 0xbc, 0xfc, 0xb3, 0x26, 0xbb, 0x06, 0x90, 0xd3, 0xbb, 
 0x76, 0xcb, 0x46, 0xbd, 0xa6, 0x79, 0xc8, 0x3c, 0xd8, 0x7f, 0x03, 0xbd, 
 0x53, 0x07, 0x2a, 0x3b, 0xd6, 0x74, 0x4b, 0xbd, 0xac, 0xad, 0xa9, 0x3c, 
 0x94, 0xe6, 0xd8, 0xbc, 0xdf, 0xa5, 0x89, 0x3b, 0x44, 0x0b, 0x98, 0x3c, 
 0x9f, 0xa1, 0x2d, 0x3c, 0xb9, 0xb8, 0x66, 0x3c, 0x84, 0xa0, 0x69, 0x3b, 
 0xff, 0x10, 0x95, 0xbc, 0x1a, 0x2f, 0xb3, 0x3b, 0x30, 0x58, 0xbb, 0x3b, 
 0x30, 0x8e, 0x96, 0xbc, 0x8d, 0xee, 0xf9, 0xbc, 0x87, 0xdc, 0x31, 0xbd, 
 0x10, 0xb6, 0x4e, 0xbd, 0x5d, 0xb0, 0x1d, 0xbd, 0x3d, 0x76, 0xaf, 0x3c, 
 0x9f, 0x26, 0xae, 0x3c, 0xe7, 0x86, 0x57, 0xbd, 0x4c, 0x7f, 0x1a, 0xbb, 
 0x51, 0x30, 0xcb, 0xbc, 0xa8, 0xa2, 0xfe, 0xbb, 0xa2, 0x2f, 0x42, 0xbc, 
 0x5a, 0x8f, 0x11, 0xbc, 0xd9, 0xa1, 0xa2, 0xbc, 0x8d, 0xac, 0x88, 0xba, 
 0x68, 0x59, 0xc0, 0x3c, 0x95, 0x86, 0x47, 0xbd, 0xf8, 0x8a, 0x93, 0x3a, 
 0xc6, 0xf8, 0x10, 0xbd, 0x03, 0x5f, 0xc0, 0x3c, 0xfa, 0x29, 0x7b, 0xbc, 
 0xd5, 0x2b, 0x9e, 0xbc, 0x56, 0x38, 0x9a, 0xbc, 0x09, 0x54, 0x6b, 0x3c, 
 0xa0, 0x82, 0x9a, 0xb9, 0x1a, 0x04, 0xef, 0x3a, 0x78, 0x6b, 0xc3, 0x3c, 
 0x83, 0x9e, 0x56, 0xbd, 0x05, 0xcd, 0xc6, 0xbc, 0x63, 0xad, 0x54, 0x3c, 
 0xa2, 0xbf, 0x8f, 0xbc, 0xfe, 0xe3, 0xee, 0xbc, 0x99, 0xa4, 0xec, 0xbc, 
 0x7a, 0xdd, 0x50, 0x3c, 0x8d, 0xed, 0xf9, 0xbc, 0x52, 0x01, 0x4b, 0xbc, 
 0x37, 0x7b, 0x0f, 0xbd, 0x94, 0x87, 0x57, 0xbd, 0x6b, 0xbe, 0x47, 0xbd, 
 0x23, 0x12, 0x3d, 0xbc, 0xab, 0xd8, 0x68, 0xbc, 0x28, 0xb9, 0x18, 0xbc, 
 0xad, 0x3b, 0xe3, 0xbc, 0xf6, 0x1b, 0x8f, 0x3b, 0x10, 0xa9, 0x5f, 0x3c, 
 0xc3, 0x54, 0xcd, 0x3b, 0x18, 0x3d, 0x1f, 0xbb, 0x29, 0x24, 0xff, 0xbc, 
 0xd7, 0x14, 0xff, 0xbc, 0x3e, 0xea, 0xe8, 0xbc, 0xb8, 0xb3, 0x31, 0xbd, 
 0xb7, 0x16, 0x0a, 0xba, 0x5e, 0xc9, 0x18, 0xbd, 0x40, 0x56, 0x1d, 0xbd, 
 0x41, 0x36, 0xd1, 0x3c, 0xe2, 0x82, 0xc4, 0x3c, 0xfd, 0x43, 0x8f, 0x3c, 
 0x36, 0x46, 0x34, 0xbd, 0xb2, 0x3d, 0xb8, 0xbc, 0x54, 0x7a, 0x54, 0x3b, 
 0x44, 0x02, 0x8a, 0xbb, 0x31, 0x71, 0xcf, 0x3c, 0xf2, 0xb0, 0x97, 0xbc, 
 0xd9, 0x44, 0x4f, 0x3c, 0xd3, 0xd5, 0x48, 0xbd, 0xb0, 0x90, 0x58, 0x3c, 
 0x3f, 0x41, 0xd8, 0xbc, 0x3b, 0x47, 0xf5, 0x3c, 0xb1, 0x3e, 0xa5, 0x3c, 
 0x39, 0x18, 0x47, 0xbc, 0x4a, 0xb2, 0x47, 0x3c, 0x68, 0x8b, 0xae, 0x3b, 
 0x4c, 0x98, 0x84, 0xbc, 0x53, 0xd6, 0x00, 0x3d, 0xdd, 0x8f, 0x0b, 0xbd, 
 0x20, 0x26, 0x70, 0x3c, 0xd2, 0xd5, 0xdb, 0xbc, 0x8c, 0x70, 0x0a, 0xbd, 
 0x64, 0xf2, 0xfb, 0xbc, 0xe7, 0xa2, 0x81, 0x3c, 0xbd, 0x34, 0x3a, 0xbd, 
 0x8c, 0xae, 0x83, 0x3c, 0xdf, 0x4c, 0x05, 0x3c, 0x87, 0xb1, 0xc3, 0xbc, 
 0x1a, 0xdf, 0x1c, 0xbd, 0x9a, 0xfc, 0xf6, 0x3c, 0xe6, 0xc4, 0x34, 0xbd, 
 0xcb, 0x9f, 0xfe, 0xbc, 0x67, 0xf1, 0xad, 0x3c, 0x6a, 0xc4, 0x83, 0x3c, 
 0x30, 0xfb, 0xa6, 0xb9, 0x3b, 0x9f, 0x9a, 0x3c, 0x93, 0x70, 0x28, 0x3c, 
 0x01, 0xde, 0x45, 0xbd, 0x6c, 0x2f, 0x89, 0xbc, 0xc5, 0x1b, 0x10, 0xbb, 
 0x0b, 0xfe, 0x8e, 0xbc, 0x94, 0x1a, 0xc8, 0xbc, 0xc1, 0xa5, 0xd1, 0xbb, 
 0x98, 0xae, 0x26, 0xbd, 0x0a, 0x4b, 0xf1, 0x3c, 0x1a, 0x7e, 0xc1, 0x3c, 
 0xe1, 0x8c, 0x14, 0x3c, 0xf9, 0xf6, 0x30, 0xbd, 0xfd, 0x60, 0x3e, 0xbb, 
 0x3e, 0xb2, 0x00, 0x3d, 0xe6, 0xee, 0x46, 0xbc, 0x13, 0x23, 0x4e, 0xbd, 
 0x25, 0x86, 0x18, 0xbd, 0x5b, 0xb3, 0xe8, 0xbb, 0xcc, 0x53, 0x94, 0xbc, 
 0xd5, 0x44, 0x4c, 0xbd, 0x6d, 0x54, 0x09, 0xbd, 0x67, 0xc7, 0xd5, 0xb9, 
 0x05, 0x79, 0x03, 0xbd, 0xe7, 0x0d, 0x1a, 0x3d, 0x0b, 0xea, 0xc9, 0x3c, 
 0xbe, 0x18, 0x88, 0x3c, 0x81, 0xab, 0x1c, 0x3d, 0x93, 0xd2, 0x57, 0x3d, 
 0xd5, 0x64, 0x82, 0x3d, 0x28, 0x75, 0x14, 0x3c, 0x00, 0xf7, 0xf9, 0x3b, 
 0x1b, 0x13, 0x2b, 0x3d, 0xf3, 0x74, 0x82, 0x3d, 0x8c, 0xbe, 0xe6, 0x3c, 
 0xfb, 0x80, 0x25, 0x3d, 0x96, 0x73, 0x51, 0x3d, 0x33, 0x3c, 0xa3, 0x3c, 
 0x79, 0x32, 0xe6, 0xbb, 0x7f, 0x3b, 0xfe, 0x3c, 0xf4, 0xdf, 0x35, 0xbb, 
 0x17, 0x58, 0x69, 0x3d, 0xe5, 0xdd, 0x14, 0x3d, 0xfc, 0x69, 0x1b, 0xbc, 
 0x90, 0xe2, 0x3d, 0x3d, 0x70, 0xae, 0x0e, 0x3d, 0x59, 0x96, 0x92, 0x3d, 
 0x0b, 0xce, 0x6f, 0x3d, 0xff, 0x66, 0x55, 0x3b, 0x9d, 0x85, 0x24, 0x3d, 
 0x0e, 0xa0, 0x92, 0x3c, 0x27, 0x83, 0x73, 0x3d, 0xb9, 0xe1, 0x80, 0x3d, 
 0x95, 0xff, 0x5f, 0x3d, 0x20, 0xe7, 0x9a, 0x3c, 0xb3, 0x7a, 0x83, 0xbb, 
 0x63, 0x71, 0x48, 0x3d, 0x49, 0xb8, 0x1b, 0x3c, 0x2c, 0xb8, 0x6d, 0x3d, 
 0xa2, 0x0d, 0x1e, 0xbc, 0xf5, 0x99, 0x89, 0x3b, 0x04, 0xd6, 0x6c, 0x3a, 
 0x44, 0x3a, 0x5e, 0x3c, 0xd0, 0x3e, 0xfa, 0x3c, 0xd8, 0xd2, 0xb0, 0x3c, 
 0x22, 0xad, 0x69, 0x3d, 0x18, 0xdc, 0xbe, 0xbb, 0x7c, 0xca, 0x42, 0x3b, 
 0x81, 0x74, 0x02, 0x3d, 0x9d, 0xdd, 0x05, 0x3d, 0x30, 0xdc, 0x55, 0x3d, 
 0xe4, 0xb6, 0xa7, 0xb9, 0x42, 0x2b, 0x89, 0x3a, 0x9f, 0xed, 0xdd, 0xba, 
 0x95, 0x14, 0x69, 0x3c, 0x41, 0xd1, 0x08, 0x3d, 0x06, 0xf9, 0x4f, 0xbc, 
 0xab, 0x5e, 0xca, 0x3c, 0x35, 0x2a, 0x2d, 0xbd, 0x33, 0x63, 0x30, 0xbd, 
 0xec, 0xcf, 0x25, 0xbd, 0x82, 0x4e, 0xae, 0xbc, 0x14, 0xec, 0x41, 0xbb, 
 0x04, 0x8d, 0x32, 0xbc, 0xa3, 0x87, 0x96, 0x3c, 0x69, 0x5f, 0x47, 0xbd, 
 0x27, 0x62, 0x46, 0xbd, 0xd0, 0x9d, 0x9d, 0x3c, 0x1f, 0x0e, 0xc6, 0x3c, 
 0x83, 0x72, 0x8e, 0x3c, 0x39, 0xfa, 0x3d, 0xbc, 0x70, 0x8f, 0xc0, 0xbb, 
 0x12, 0xab, 0x2d, 0xbd, 0x58, 0xa1, 0x9d, 0xbc, 0x9f, 0x7f, 0x1c, 0x3d, 
 0x09, 0xae, 0x7e, 0x3c, 0xee, 0xdc, 0xa1, 0x3c, 0xbc, 0x63, 0x8c, 0x3c, 
 0x1f, 0x10, 0x12, 0x3d, 0x5c, 0x59, 0x9a, 0x3b, 0x08, 0xd5, 0x17, 0xbc, 
 0xd2, 0x2d, 0xd4, 0x3b, 0xf9, 0xcc, 0x98, 0x3c, 0x96, 0xce, 0x6c, 0x3d, 
 0xb6, 0x39, 0x6b, 0xbb, 0xb3, 0xed, 0xe6, 0x3c, 0xc1, 0xb3, 0x19, 0xbb, 
 0xca, 0x6a, 0x5f, 0x3d, 0xee, 0xdf, 0x45, 0x3d, 0x98, 0xba, 0xf4, 0xbc, 
 0x50, 0xf4, 0x0b, 0x3d, 0x75, 0xf4, 0x02, 0xbd, 0xf1, 0xd8, 0x43, 0x3c, 
 0x24, 0xd3, 0xbf, 0xbc, 0x2f, 0x98, 0xe4, 0xbc, 0xd8, 0x44, 0xdb, 0xbc, 
 0x2e, 0x40, 0x0d, 0x3d, 0xa2, 0x97, 0xf2, 0x3b, 0xb2, 0x30, 0x94, 0x3b, 
 0x7c, 0xe7, 0x24, 0xbc, 0xa2, 0xb8, 0x99, 0x3c, 0x5f, 0xa0, 0x35, 0xbc, 
 0xce, 0xae, 0xf3, 0x3b, 0x07, 0xbe, 0x0f, 0xbd, 0x27, 0xd5, 0xa4, 0x3c, 
 0xe4, 0x91, 0x95, 0x3b, 0xc3, 0x5e, 0x2e, 0xbc, 0x0e, 0x4f, 0x3d, 0x3d, 
 0x4e, 0xbd, 0x21, 0x3d, 0x35, 0xa1, 0x32, 0xba, 0x9b, 0xfe, 0x98, 0x3c, 
 0xec, 0xc3, 0x81, 0xbb, 0x94, 0xd8, 0x15, 0xbd, 0x7d, 0x08, 0x53, 0x3d, 
 0xe8, 0xbc, 0x8e, 0x3c, 0x03, 0x90, 0xa0, 0x3c, 0x08, 0x13, 0x3e, 0x3c, 
 0x57, 0xe5, 0xca, 0xbc, 0x48, 0xff, 0x1b, 0xbd, 0xcf, 0xf5, 0x16, 0x3c, 
 0x07, 0xeb, 0x8b, 0xbb, 0xf3, 0xbb, 0x4b, 0x3d, 0xca, 0xfd, 0x36, 0xbb, 
 0x98, 0x1a, 0x7e, 0x3c, 0xb7, 0x7e, 0x13, 0x3c, 0x8e, 0x7d, 0x37, 0x3d, 
 0x38, 0xa3, 0x12, 0x3d, 0x8f, 0x3a, 0x30, 0x3d, 0xec, 0xaf, 0xa8, 0xbc, 
 0xea, 0x0b, 0xc9, 0x3c, 0xd3, 0xa0, 0xe2, 0x3b, 0x63, 0xb2, 0xa5, 0x3c, 
 0x77, 0x25, 0x63, 0xbb, 0x82, 0x0a, 0x6b, 0x3c, 0xb2, 0x25, 0xc8, 0x3b, 
 0xce, 0x05, 0x68, 0x3c, 0xac, 0x0e, 0x0b, 0x3d, 0x8f, 0x96, 0x0d, 0xbc, 
 0xfe, 0x61, 0x38, 0x3d, 0x96, 0xe9, 0xc9, 0x3c, 0x08, 0x06, 0xdc, 0x3c, 
 0xdb, 0xab, 0x4d, 0x3c, 0xea, 0x6e, 0x99, 0x3a, 0xc2, 0x77, 0x8b, 0xbc, 
 0xad, 0x0a, 0x7a, 0x3b, 0x41, 0x33, 0xf6, 0x3c, 0x03, 0x6e, 0x49, 0xbc, 
 0x7b, 0xe8, 0xd2, 0xbc, 0x8c, 0xc4, 0x5a, 0x3b, 0xa2, 0xb0, 0xef, 0x3c, 
 0xfc, 0x4a, 0x6b, 0xbc, 0xce, 0xfc, 0x53, 0xbb, 0x65, 0xae, 0x5c, 0xbc, 
 0x6c, 0x63, 0x02, 0x3d, 0x54, 0x5f, 0x33, 0x3c, 0x02, 0x21, 0x05, 0x3c, 
 0x8f, 0xaa, 0xd6, 0xbc, 0x19, 0x8b, 0x07, 0xbd, 0xdb, 0x21, 0xa0, 0xbc, 
 0x5f, 0x22, 0xa6, 0xbc, 0x13, 0x1a, 0x55, 0x3b, 0xf9, 0x55, 0x97, 0x3c, 
 0x2b, 0xf3, 0xa8, 0xbb, 0x11, 0x25, 0x83, 0xbc, 0xcb, 0x7c, 0x55, 0x3c, 
 0xe2, 0x30, 0xec, 0xbc, 0x71, 0x47, 0x81, 0x3c, 0xe9, 0xd3, 0x4e, 0x3d, 
 0xd2, 0xa7, 0x3e, 0xbb, 0xdd, 0xef, 0x83, 0x3b, 0x5b, 0x8b, 0xc6, 0x3c, 
 0x53, 0x30, 0xab, 0x3c, 0xad, 0xef, 0x1e, 0x3d, 0x7f, 0x38, 0xfd, 0x3c, 
 0xa2, 0x8a, 0x93, 0x3b, 0xe4, 0xf0, 0x0e, 0x3c, 0xe1, 0x7f, 0x2d, 0xbd, 
 0x19, 0x82, 0x8d, 0x3b, 0x44, 0x21, 0xb9, 0xbc, 0x43, 0xef, 0xe4, 0x3c, 
 0x2f, 0xfa, 0x17, 0x3c, 0x04, 0x27, 0x14, 0x3a, 0xf0, 0x92, 0xb5, 0xbc, 
 0x49, 0xb2, 0xad, 0x3c, 0x0d, 0xf2, 0x2a, 0xbd, 0xe0, 0x5c, 0x1f, 0x3d, 
 0xb9, 0x78, 0x92, 0xbc, 0xe8, 0x05, 0xd3, 0x3c, 0xd9, 0x32, 0xdc, 0x3c, 
 0x48, 0x0a, 0x11, 0xbd, 0x7d, 0x9e, 0xd4, 0x3b, 0x64, 0xb6, 0xfe, 0x3c, 
 0x51, 0xe2, 0x29, 0xbd, 0x8d, 0x9d, 0x0a, 0xbd, 0xa3, 0x80, 0xc8, 0x3b, 
 0x13, 0xe9, 0xf5, 0x3c, 0x84, 0x08, 0x21, 0xbd, 0x5b, 0x42, 0x49, 0xbd, 
 0xe8, 0x48, 0x27, 0xbd, 0xaa, 0x27, 0x61, 0xbc, 0xd9, 0xcc, 0x12, 0xbc, 
 0x10, 0xe1, 0x59, 0xbb, 0xcc, 0x1f, 0x7c, 0xbd, 0x91, 0xbb, 0x6c, 0xbc, 
 0x53, 0x8e, 0x0f, 0xbd, 0x6d, 0x35, 0xd2, 0xbc, 0x77, 0xc7, 0x2f, 0xbd, 
 0xbb, 0xfb, 0xe0, 0xbc, 0xbe, 0xc7, 0x95, 0x3b, 0x1f, 0xe0, 0x02, 0xbd, 
 0x94, 0x28, 0x55, 0x3c, 0x77, 0x5a, 0x19, 0xbd, 0xd9, 0x4c, 0x04, 0xbd, 
 0xe7, 0x27, 0x07, 0xbd, 0x95, 0x87, 0x46, 0xbc, 0x17, 0xaa, 0x58, 0xbc, 
 0xb6, 0xd6, 0x6c, 0xbd, 0x36, 0xcf, 0x93, 0xbc, 0xcf, 0x94, 0x2b, 0xbc, 
 0x13, 0xb6, 0xba, 0x3c, 0x75, 0x51, 0x3b, 0x3c, 0x3c, 0x61, 0xbf, 0x3c, 
 0xe5, 0xca, 0xa6, 0x3c, 0x06, 0x3f, 0xbd, 0xbb, 0x48, 0xb1, 0x21, 0xbc, 
 0xeb, 0x3c, 0xe8, 0xbc, 0x37, 0x39, 0xb5, 0xbc, 0xf5, 0x28, 0x57, 0x3c, 
 0xfe, 0x1c, 0x80, 0xbb, 0x68, 0x01, 0x16, 0xbd, 0xb0, 0xe0, 0x6c, 0x3c, 
 0xba, 0x80, 0x01, 0xbd, 0x31, 0xef, 0xca, 0xbc, 0x5f, 0xbf, 0x30, 0x3c, 
 0xf8, 0xf8, 0x2f, 0x3b, 0xbb, 0x59, 0x57, 0xbd, 0x0a, 0xc4, 0x45, 0x3c, 
 0xd7, 0x96, 0xa1, 0x3c, 0xf0, 0x65, 0x6a, 0xbd, 0xce, 0xe4, 0xec, 0xbb, 
 0x7d, 0x46, 0xec, 0x3c, 0x1b, 0x5c, 0x56, 0xbd, 0x60, 0xc2, 0x96, 0xbc, 
 0x91, 0xc6, 0xcc, 0xbc, 0x34, 0xb5, 0x43, 0xbd, 0x97, 0xfc, 0x88, 0x3c, 
 0x75, 0x4a, 0x3b, 0xbd, 0x17, 0xa2, 0x4d, 0x3c, 0xc7, 0xfb, 0x17, 0xbd, 
 0x93, 0x00, 0xbc, 0xbb, 0x3a, 0x36, 0x08, 0xbd, 0xdf, 0x16, 0xb0, 0x3c, 
 0xce, 0x5c, 0x8d, 0xbc, 0xb3, 0x57, 0x19, 0x3c, 0x65, 0xb3, 0xd4, 0xbc, 
 0xb6, 0x3c, 0xcd, 0x3c, 0x4c, 0xff, 0x28, 0xbd, 0xe7, 0x53, 0x8d, 0xbc, 
 0x14, 0xf8, 0x70, 0x3a, 0x11, 0x6c, 0x2b, 0xbc, 0xfb, 0x38, 0x5f, 0xbd, 
 0x18, 0x55, 0x8d, 0xbc, 0xa0, 0xca, 0x10, 0xbc, 0xac, 0x31, 0x22, 0xbd, 
 0x33, 0x98, 0x54, 0x3b, 0xbd, 0xfa, 0xb4, 0x3c, 0x0b, 0xa0, 0x0d, 0xbd, 
 0xcc, 0xa2, 0x27, 0xbd, 0x73, 0xe0, 0x4c, 0x3c, 0x09, 0x79, 0xdf, 0xbc, 
 0xd3, 0x39, 0xd4, 0xbc, 0x2b, 0xec, 0x09, 0x3d, 0xc3, 0x86, 0x24, 0xbd, 
 0x1b, 0x4c, 0xb8, 0x3c, 0xd3, 0x2e, 0xd9, 0xbc, 0x1e, 0x31, 0x0c, 0x3c, 
 0x6f, 0x1b, 0xc6, 0xbb, 0x35, 0xf9, 0x1c, 0x3c, 0xd4, 0x19, 0x96, 0xbc, 
 0xd9, 0xd3, 0xfe, 0xbc, 0x9e, 0xa1, 0xfd, 0x3c, 0x39, 0x88, 0xae, 0xbc, 
 0x28, 0x13, 0xea, 0x3b, 0xb4, 0x47, 0x10, 0xbd, 0xd5, 0x69, 0xfb, 0x3c, 
 0xfd, 0x0e, 0x3f, 0xbb, 0x85, 0x7c, 0x58, 0xbc, 0x59, 0xaf, 0x28, 0xbd, 
 0x2e, 0xee, 0x10, 0x3c, 0xab, 0xf3, 0x3d, 0xbd, 0x43, 0x40, 0x2d, 0xbb, 
 0x9f, 0x35, 0x2b, 0xbd, 0x44, 0xe0, 0x0f, 0xbc, 0x00, 0x5f, 0x8d, 0xbc, 
 0x7b, 0xb1, 0xe2, 0xbc, 0xc0, 0x2d, 0x1c, 0xbd, 0x8c, 0xda, 0xf9, 0xbc, 
 0xc2, 0x60, 0xaf, 0x3a, 0x11, 0xc2, 0x9d, 0xbc, 0xa7, 0x1a, 0xe9, 0x3c, 
 0xad, 0x05, 0x53, 0xbd, 0x67, 0xd3, 0xa5, 0xbc, 0xef, 0x60, 0x2b, 0x3c, 
 0x75, 0xe3, 0x6c, 0x3b, 0x4f, 0xed, 0x5d, 0xbc, 0xcf, 0x30, 0x9f, 0x3c, 
 0x8b, 0x63, 0x0c, 0xbd, 0x37, 0x25, 0xde, 0xbc, 0x92, 0x80, 0x27, 0xbd, 
 0x5e, 0x52, 0xc5, 0x3c, 0xcd, 0xd7, 0xbe, 0x3c, 0x6c, 0xce, 0x2e, 0xbd, 
 0x12, 0x41, 0xdb, 0x3c, 0x8d, 0x11, 0x9e, 0xbc, 0x55, 0xa1, 0xa6, 0x3c, 
 0xa9, 0xc1, 0x59, 0xbd, 0x80, 0x43, 0x89, 0x3c, 0x40, 0xcc, 0xb8, 0x3c, 
 0x8f, 0x10, 0xb9, 0x3c, 0xdc, 0x18, 0xcf, 0x3c, 0x04, 0x4f, 0x80, 0x3c, 
 0xc0, 0xbd, 0xab, 0xbc, 0x3d, 0xac, 0xed, 0xbc, 0xc1, 0x80, 0xfa, 0xbc, 
 0xb8, 0x10, 0xed, 0x3b, 0x3f, 0xe8, 0x18, 0xbc, 0x26, 0x14, 0x83, 0xbc, 
 0x1b, 0x3a, 0x4e, 0xbd, 0xa3, 0x32, 0x48, 0xbd, 0xcd, 0xd7, 0xfd, 0xbc, 
 0x03, 0xa2, 0x23, 0xbd, 0x7a, 0x5e, 0xc2, 0xbc, 0x46, 0xa4, 0x1d, 0xbd, 
 0x8a, 0xe1, 0x21, 0xbd, 0xf1, 0xbb, 0xf3, 0xbc, 0xe1, 0x50, 0x96, 0xbc, 
 0x18, 0xab, 0x60, 0xbd, 0x02, 0x10, 0x19, 0xbc, 0xc3, 0x55, 0xaa, 0x3b, 
 0xc9, 0x45, 0xf2, 0xbc, 0x97, 0xf3, 0x41, 0xbc, 0xbf, 0x5b, 0xde, 0x3b, 
 0x3b, 0xf5, 0xf7, 0xbc, 0xe8, 0x78, 0x08, 0xbd, 0x82, 0x14, 0x0c, 0x3c, 
 0x42, 0xda, 0xfb, 0x3a, 0x90, 0xc9, 0xc8, 0xbc, 0x35, 0xad, 0x60, 0xbd, 
 0xdb, 0x0c, 0x66, 0xbd, 0x71, 0xf4, 0xcc, 0xbc, 0xf7, 0xcd, 0xbc, 0xbb, 
 0xc2, 0x68, 0x7c, 0x3b, 0xec, 0x29, 0xce, 0xbb, 0x38, 0xb2, 0x44, 0xbd, 
 0xc3, 0x6b, 0xbd, 0xba, 0x6e, 0x4c, 0xda, 0xba, 0xf0, 0x14, 0x77, 0xbc, 
 0x57, 0xb5, 0x6a, 0xbd, 0x3a, 0x9e, 0x9b, 0xbc, 0x4e, 0x48, 0x3e, 0xbd, 
 0x2b, 0xa4, 0x9d, 0xbc, 0x5d, 0xaf, 0xe6, 0xbb, 0xb6, 0xb4, 0x18, 0xbb, 
 0xdf, 0xff, 0x81, 0xbd, 0x56, 0x58, 0x4b, 0xbd, 0x7b, 0x01, 0x9d, 0xbc, 
 0xcc, 0x68, 0x4b, 0xbd, 0x22, 0x6d, 0x06, 0x3c, 0x04, 0xa4, 0xac, 0x3b, 
 0xfd, 0x78, 0xba, 0xbc, 0xff, 0xc4, 0x9e, 0xbc, 0x17, 0x6c, 0x13, 0xbd, 
 0x9b, 0xee, 0x8d, 0xbb, 0xd0, 0x49, 0x01, 0xbc, 0x99, 0x49, 0xa3, 0xbc, 
 0xb6, 0xd5, 0x42, 0xbd, 0xa4, 0x45, 0x3f, 0x3c, 0xa7, 0xed, 0x42, 0xbd, 
 0x72, 0x82, 0x31, 0xbd, 0x86, 0xaa, 0x43, 0xbd, 0xde, 0x07, 0xd3, 0xbc, 
 0xb2, 0x08, 0x65, 0xbd, 0xac, 0x23, 0x06, 0x3c, 0x5d, 0xa6, 0x51, 0x3b, 
 0x3d, 0xe3, 0xbc, 0xbc, 0x6d, 0x0f, 0xef, 0xbc, 0xee, 0x17, 0x4d, 0xbd, 
 0xc7, 0xb8, 0xcc, 0xbb, 0x7e, 0xc6, 0xb8, 0xbc, 0x48, 0x0a, 0x10, 0xbd, 
 0x7a, 0x9f, 0xe1, 0xbc, 0x6c, 0xac, 0xb6, 0xbc, 0xd3, 0x96, 0x01, 0xbc, 
 0x0c, 0xbf, 0x92, 0x3c, 0xa3, 0xf2, 0x4a, 0xbc, 0xe2, 0x2b, 0x0c, 0x3d, 
 0x7c, 0x22, 0x08, 0xbc, 0xea, 0x33, 0xd0, 0xbb, 0xc9, 0x93, 0xd6, 0x3c, 
 0xc3, 0x61, 0x4d, 0xbd, 0xad, 0xa3, 0xb4, 0x3c, 0x84, 0xf4, 0xce, 0x3c, 
 0xa1, 0x8a, 0xd9, 0x3c, 0x82, 0x83, 0x30, 0xbd, 0x4d, 0x67, 0x5e, 0xbd, 
 0xdd, 0x57, 0xb6, 0x3c, 0x6b, 0xcb, 0x33, 0xbc, 0x0b, 0xca, 0x0f, 0x3b, 
 0x60, 0xe1, 0xc6, 0x3c, 0x88, 0x78, 0x58, 0xbd, 0x79, 0x2a, 0x0a, 0xbc, 
 0xb5, 0xed, 0xfd, 0xbc, 0xd3, 0x90, 0xf7, 0xbc, 0x14, 0xcf, 0x30, 0xbd, 
 0xab, 0x77, 0x0c, 0xbd, 0xff, 0x36, 0x47, 0xbc, 0xd5, 0x57, 0xbd, 0xbc, 
 0xe2, 0xce, 0x10, 0xbd, 0xe5, 0x3e, 0x97, 0xbc, 0x79, 0x36, 0xad, 0x3c, 
 0x2f, 0x2f, 0x50, 0xbc, 0x98, 0x81, 0x5f, 0xbd, 0x67, 0x20, 0xd5, 0xbc, 
 0xa4, 0x6a, 0x3c, 0xbd, 0x6b, 0xbd, 0x17, 0xbd, 0x99, 0x4c, 0x0f, 0xbd, 
 0x0e, 0x27, 0x90, 0xbb, 0x48, 0x2a, 0x83, 0x3c, 0xf9, 0x5f, 0x19, 0xbc, 
 0xbe, 0x06, 0x15, 0xbd, 0xf4, 0xc8, 0x0e, 0xbc, 0xc2, 0x95, 0xae, 0xb9, 
 0x95, 0xfb, 0x39, 0xbd, 0x35, 0x2b, 0x50, 0xbd, 0x58, 0xad, 0xb9, 0x3c, 
 0xfc, 0xac, 0x43, 0xbd, 0x76, 0x79, 0x15, 0xbd, 0xc4, 0xf5, 0x7d, 0xbc, 
 0xfa, 0x63, 0xc0, 0x3c, 0xfb, 0x65, 0x7d, 0xbc, 0x3b, 0xc1, 0xc8, 0x3c, 
 0xf2, 0x4f, 0xf9, 0x39, 0xa8, 0x36, 0xf0, 0x3c, 0x5c, 0x30, 0xe2, 0x3b, 
 0x11, 0xdc, 0xb2, 0x3c, 0x85, 0xe6, 0xcc, 0x3c, 0x5c, 0x50, 0xa0, 0xbb, 
 0x25, 0x53, 0x3e, 0xbd, 0x0c, 0xa6, 0x69, 0x3c, 0xee, 0xb5, 0x38, 0xbc, 
 0x6d, 0x51, 0x37, 0xbd, 0x6c, 0x11, 0xb7, 0xbc, 0x39, 0xf5, 0x22, 0xbd, 
 0xcb, 0xcc, 0xb6, 0xbc, 0xb2, 0xa5, 0xfd, 0x3c, 0x06, 0xd0, 0xa5, 0x3b, 
 0xca, 0xb5, 0xad, 0x3c, 0xae, 0x24, 0x89, 0x3c, 0xc7, 0x2f, 0x54, 0xbc, 
 0x70, 0xb1, 0xe0, 0xbc, 0x32, 0xdf, 0xdb, 0x3b, 0xc5, 0x3a, 0x9b, 0xbc, 
 0xf3, 0x2e, 0x5c, 0x3c, 0x1f, 0xda, 0x46, 0xbd, 0x35, 0x5b, 0xc7, 0xbc, 
 0x74, 0xcf, 0x14, 0xbc, 0xdc, 0x06, 0x62, 0x3c, 0x13, 0x10, 0xfc, 0xbc, 
 0xf7, 0x31, 0x0b, 0x3c, 0x2c, 0xb3, 0x4a, 0xbc, 0xff, 0xc7, 0x15, 0xbc, 
 0xf9, 0xab, 0xab, 0xbb, 0xcc, 0x86, 0x4c, 0xbd, 0xdd, 0x11, 0xea, 0xbc, 
 0x9d, 0xef, 0x3c, 0xbd, 0xea, 0x49, 0x0a, 0xbd, 0x13, 0x93, 0xfe, 0x3b, 
 0x2b, 0x1e, 0xd1, 0x3a, 0x8a, 0x58, 0x3d, 0xbd, 0xf5, 0x9c, 0xa8, 0xbc, 
 0x3d, 0x89, 0x45, 0x3c, 0x5b, 0x52, 0x3f, 0xbd, 0xb7, 0xb4, 0x08, 0xbd, 
 0xdf, 0x97, 0x81, 0xbc, 0x07, 0x20, 0xa1, 0xbc, 0x58, 0xa3, 0x90, 0xbc, 
 0x9b, 0x9b, 0x39, 0x3c, 0x21, 0xf6, 0x09, 0xbd, 0x20, 0xf3, 0x12, 0x3c, 
 0xfd, 0xff, 0x4f, 0xbc, 0x96, 0x00, 0x84, 0xbc, 0xd0, 0xf4, 0xc9, 0xbc, 
 0xf7, 0xfd, 0xba, 0x3c, 0x25, 0xc7, 0x81, 0x3c, 0x03, 0xe2, 0x0c, 0xbc, 
 0x8b, 0x0d, 0x14, 0xbd, 0xaf, 0x16, 0x18, 0xbd, 0x09, 0x2e, 0xef, 0xbc, 
 0x03, 0x2d, 0xf9, 0xbb, 0x5a, 0x43, 0x31, 0xba, 0x5c, 0x65, 0x5a, 0x3c, 
 0xb5, 0xda, 0x90, 0x3c, 0xac, 0x98, 0x94, 0xbc, 0xb4, 0x4e, 0x33, 0x3c, 
 0x28, 0xd8, 0xea, 0x3b, 0x5f, 0x88, 0x46, 0xbc, 0xcb, 0xfb, 0x67, 0x3b, 
 0x59, 0x69, 0xe3, 0xba, 0xcb, 0x7a, 0xe2, 0x3b, 0x8e, 0x73, 0xb7, 0x3b, 
 0x90, 0x30, 0xb5, 0xbc, 0x4b, 0x46, 0x81, 0x3c, 0xcb, 0xc6, 0xd0, 0xbc, 
 0x37, 0x9f, 0x4a, 0xbd, 0x03, 0xcd, 0xc2, 0xbb, 0xb8, 0x3f, 0x3b, 0xbd, 
 0x19, 0x75, 0x81, 0x3c, 0x75, 0xc4, 0x1e, 0x3c, 0x4a, 0xa3, 0x81, 0x3b, 
 0xb3, 0x93, 0xf6, 0xbc, 0xc8, 0x99, 0x4c, 0xbd, 0xdb, 0x8f, 0xee, 0xbc, 
 0x83, 0xa3, 0xee, 0xbc, 0xad, 0x3b, 0x0b, 0xbd, 0xa7, 0x43, 0x22, 0xbc, 
 0xdc, 0x80, 0xa3, 0xbc, 0xc3, 0x16, 0x4b, 0xbd, 0xca, 0x21, 0x77, 0x3c, 
 0x53, 0xd2, 0x45, 0xbc, 0x3a, 0x08, 0x2d, 0xbd, 0xf9, 0x9e, 0x28, 0xbb, 
 0xb2, 0xbe, 0x3d, 0xbd, 0x63, 0xf7, 0x50, 0xbd, 0x54, 0xa0, 0xba, 0x3c, 
 0x31, 0x75, 0x43, 0xbd, 0x28, 0x92, 0x8a, 0x3c, 0xdc, 0x28, 0x2f, 0xbd, 
 0xde, 0x7a, 0xbd, 0x3c, 0x22, 0xab, 0xad, 0xbc, 0xcf, 0xcd, 0xe1, 0x3c, 
 0xdc, 0x33, 0x05, 0x3c, 0x37, 0xd6, 0xec, 0xbc, 0xc7, 0x74, 0x18, 0x3c, 
 0xde, 0xe7, 0x32, 0xbd, 0xac, 0x6b, 0xcb, 0x3b, 0xd2, 0x21, 0x36, 0xbd, 
 0x67, 0x98, 0x97, 0xbc, 0x01, 0x76, 0xcf, 0x3c, 0xcf, 0x84, 0xe3, 0xbc, 
 0x02, 0x23, 0x1b, 0xbd, 0x7f, 0xca, 0x88, 0x3c, 0xfd, 0xdc, 0x1b, 0xbd, 
 0x0a, 0xe9, 0x15, 0xbd, 0xbd, 0x0b, 0xd0, 0x3c, 0xb1, 0x30, 0xe1, 0xbc, 
 0xbd, 0x4d, 0x05, 0xbd, 0xb7, 0xba, 0xce, 0x3c, 0xb3, 0x53, 0x9f, 0xbb, 
 0x9d, 0x06, 0xce, 0xbc, 0x62, 0xf9, 0x3c, 0xbd, 0xb9, 0x14, 0x27, 0xbd, 
 0xb3, 0xbb, 0x0e, 0xbd, 0x6f, 0xa9, 0xc7, 0x3c, 0x1c, 0xa2, 0xbc, 0xbc, 
 0xc7, 0xff, 0xc8, 0x3a, 0xae, 0x35, 0x0e, 0xbd, 0x03, 0xba, 0x99, 0xba, 
 0x22, 0xa3, 0x27, 0xbd, 0xe0, 0x2a, 0xef, 0x3a, 0x3d, 0x46, 0xc2, 0xbc, 
 0x14, 0x0e, 0x03, 0xbc, 0xfe, 0x23, 0xed, 0xbb, 0xf8, 0xac, 0x33, 0xbd, 
 0xa5, 0x61, 0x3f, 0xbd, 0x28, 0xb7, 0x89, 0xba, 0x57, 0x43, 0xbb, 0x39, 
 0xfd, 0x88, 0xca, 0x3c, 0xe8, 0xad, 0x1b, 0xbd, 0x5b, 0x93, 0x03, 0xbc, 
 0x70, 0x03, 0xad, 0x3c, 0xd3, 0x06, 0xe2, 0x3c, 0xb0, 0xc6, 0x47, 0x3b, 
 0x72, 0xe8, 0xe3, 0x3b, 0xa9, 0x08, 0xee, 0x3c, 0xa1, 0xe1, 0x02, 0xbd, 
 0x9b, 0xf8, 0xdd, 0xbc, 0x0e, 0x62, 0xa5, 0x3b, 0x98, 0x4f, 0x8f, 0x3b, 
 0x73, 0x62, 0x5c, 0x3c, 0xec, 0xd3, 0x05, 0xbc, 0x2b, 0x9d, 0x2a, 0xbd, 
 0x1b, 0xbb, 0x2d, 0xbd, 0x1a, 0x7f, 0x01, 0x3b, 0xad, 0xbd, 0x30, 0xbc, 
 0xcd, 0xcc, 0xb3, 0x3b, 0x3c, 0xf6, 0xa2, 0xbc, 0xe7, 0x5c, 0xf8, 0xba, 
 0xcf, 0x60, 0x0a, 0xbc, 0x28, 0xb0, 0x37, 0xbd, 0xb7, 0x46, 0x8c, 0xbc, 
 0xbf, 0x66, 0x2b, 0xbd, 0xf8, 0xb7, 0xfe, 0xbc, 0xbc, 0x17, 0xf6, 0xbc, 
 0x57, 0x63, 0x62, 0xbd, 0x90, 0xdc, 0xe1, 0x3c, 0x6d, 0xe1, 0x96, 0xbc, 
 0x33, 0xb5, 0xc4, 0xbc, 0x17, 0x44, 0x24, 0xbd, 0x91, 0x92, 0xd0, 0x3c, 
 0xd8, 0xa2, 0xa1, 0xbb, 0x65, 0xa5, 0x62, 0xbc, 0xe9, 0x18, 0x8c, 0x3c, 
 0x1c, 0x93, 0xb0, 0xbc, 0x40, 0xc9, 0x0e, 0x3c, 0x93, 0xeb, 0x3a, 0xbc, 
 0x17, 0x9a, 0x7c, 0x3b, 0xa5, 0x7b, 0x1d, 0xbd, 0x89, 0x5c, 0xbf, 0xbb, 
 0x09, 0x25, 0xd0, 0x3c, 0x95, 0x48, 0xe1, 0xbc, 0x15, 0xb1, 0x03, 0x3d, 
 0x6f, 0x0c, 0x11, 0xbc, 0xde, 0xa2, 0xe5, 0xbc, 0x86, 0xb4, 0xe8, 0xbc, 
 0xe6, 0xb2, 0x1e, 0xbd, 0xd6, 0x8f, 0x9f, 0xbb, 0x61, 0x2e, 0x0d, 0xbd, 
 0xc7, 0x0f, 0x1f, 0xbd, 0x34, 0xab, 0xf1, 0xbc, 0x2e, 0xb9, 0xbe, 0x3c, 
 0x7d, 0x4c, 0xaa, 0x3c, 0xb0, 0x42, 0x92, 0xbc, 0xbd, 0x1a, 0x17, 0xbd, 
 0xd7, 0xd7, 0x19, 0x3c, 0xc2, 0x83, 0x6f, 0x3b, 0x0d, 0x38, 0x43, 0xbd, 
 0xa3, 0x06, 0xb7, 0xbc, 0xcb, 0xe7, 0xb2, 0xbc, 0x83, 0x3e, 0x1f, 0xbd, 
 0x6c, 0x3b, 0x10, 0x3c, 0x6f, 0xb9, 0x83, 0xbc, 0x2c, 0x51, 0x28, 0xbc, 
 0x26, 0x38, 0x9c, 0x3c, 0x32, 0x6d, 0x1d, 0xbd, 0x77, 0xbf, 0x89, 0x3c, 
 0xd2, 0xc1, 0x69, 0xbc, 0xe0, 0x7c, 0x0b, 0x3d, 0x0a, 0xdb, 0x1b, 0xbd, 
 0x5b, 0x10, 0xc2, 0xbc, 0x83, 0xa2, 0xeb, 0xbc, 0xf4, 0xcc, 0x18, 0x3d, 
 0x3f, 0x78, 0xed, 0x3c, 0x5d, 0x59, 0xe6, 0x3c, 0x69, 0x36, 0xe8, 0xbc, 
 0x7e, 0x34, 0x10, 0x3d, 0x80, 0xcb, 0xed, 0xbc, 0x61, 0x27, 0x59, 0x3c, 
 0x42, 0xed, 0xaf, 0x3c, 0x4b, 0x90, 0x01, 0xbd, 0x5f, 0xb6, 0x1f, 0xbd, 
 0x53, 0xe3, 0xcf, 0x3c, 0x3a, 0x08, 0x91, 0x3c, 0x67, 0xbc, 0x22, 0xbc, 
 0x2d, 0x3e, 0xc5, 0xbc, 0x2d, 0x69, 0x81, 0x3b, 0xc5, 0x1b, 0xc7, 0x3c, 
 0x65, 0x45, 0x95, 0xbb, 0xbb, 0xd8, 0x97, 0xbc, 0x09, 0x9d, 0x1a, 0x3d, 
 0x8e, 0x75, 0xed, 0xbb, 0x76, 0x67, 0xc8, 0x3c, 0x1a, 0x85, 0xb0, 0xbc, 
 0x8f, 0x2b, 0x09, 0x3d, 0x9f, 0x1e, 0xba, 0xbc, 0xb7, 0x92, 0xa0, 0xbc, 
 0x59, 0xec, 0x07, 0xbd, 0xe8, 0x97, 0x84, 0xbc, 0x69, 0x72, 0x47, 0xbd, 
 0x66, 0xdf, 0xa2, 0x3b, 0x47, 0xc1, 0x41, 0xbc, 0x5a, 0xa0, 0xcf, 0x3c, 
 0x13, 0x19, 0x28, 0xbd, 0x88, 0x3d, 0x99, 0x3c, 0x45, 0x57, 0x47, 0xb9, 
 0xc2, 0xf8, 0xa9, 0x3c, 0x2b, 0xc0, 0xb2, 0x3c, 0xfe, 0x00, 0xed, 0x3b, 
 0x66, 0x54, 0x16, 0xbc, 0xdc, 0x1a, 0xeb, 0x3c, 0x67, 0xd3, 0x17, 0xbc, 
 0x40, 0x7a, 0x06, 0xbd, 0x7a, 0xb6, 0x42, 0xbd, 0xdb, 0x52, 0x29, 0xbc, 
 0x1b, 0x8a, 0x1f, 0xbd, 0x82, 0xf9, 0x16, 0xbd, 0x4b, 0xa1, 0xb0, 0x3b, 
 0xb6, 0xee, 0x53, 0xbc, 0x93, 0x3e, 0x29, 0xbd, 0xd0, 0x3a, 0xcd, 0xbc, 
 0x8a, 0x68, 0x07, 0xbd, 0x04, 0xfa, 0x82, 0xbc, 0x08, 0x24, 0x9e, 0xbc, 
 0xd5, 0x02, 0x54, 0x39, 0x39, 0x2f, 0xab, 0xbc, 0xe4, 0x34, 0x17, 0xbd, 
 0x59, 0xa7, 0x3f, 0xbc, 0x96, 0x77, 0x1b, 0xbd, 0x74, 0x81, 0x35, 0x3c, 
 0xe1, 0x7c, 0x0f, 0xbd, 0xc2, 0x23, 0xe0, 0xbc, 0x0d, 0x9f, 0x2b, 0xbb, 
 0x61, 0x13, 0x7e, 0xbc, 0xa2, 0x5f, 0x7c, 0xbc, 0xfd, 0xdd, 0x85, 0xbc, 
 0xf9, 0x5d, 0x94, 0x3c, 0xa2, 0x1d, 0x95, 0xbc, 0xc9, 0xe6, 0xa2, 0xbc, 
 0x7b, 0x0a, 0x89, 0x3c, 0x76, 0x0c, 0x49, 0xbc, 0x78, 0xca, 0x0a, 0xbd, 
 0xb3, 0x0b, 0xd3, 0xba, 0x45, 0xe1, 0x0d, 0x3c, 0xc9, 0x55, 0xb3, 0xbc, 
 0x37, 0x2a, 0xe3, 0xbc, 0x4b, 0x46, 0x16, 0x3c, 0x81, 0x69, 0x22, 0xbd, 
 0x03, 0x2c, 0x80, 0xbc, 0x10, 0x38, 0x7a, 0x3c, 0x78, 0xab, 0xbf, 0xbc, 
 0xf9, 0xef, 0x16, 0xbc, 0x78, 0x56, 0x86, 0xbc, 0x99, 0xda, 0x08, 0x3b, 
 0x09, 0xc2, 0xdb, 0x3c, 0x10, 0xae, 0xeb, 0x3c, 0x06, 0xaf, 0x18, 0xbd, 
 0xbb, 0x9f, 0x26, 0xbd, 0xe6, 0x3d, 0x15, 0xbd, 0xbe, 0x2d, 0x4f, 0xb9, 
 0xcd, 0x3a, 0x90, 0x3c, 0x53, 0xa6, 0x00, 0x3d, 0x97, 0xf2, 0xd8, 0xbc, 
 0xce, 0x9b, 0x8b, 0x3c, 0x08, 0x48, 0x0a, 0xbd, 0xd1, 0x09, 0x09, 0x3d, 
 0xc8, 0xf1, 0x9f, 0xbc, 0x65, 0xd8, 0xd9, 0x3c, 0x8f, 0xb4, 0xc8, 0x3c, 
 0x8c, 0x3c, 0x3a, 0xbd, 0x03, 0x7e, 0x2e, 0x3c, 0x30, 0x0a, 0x3b, 0xbd, 
 0x5d, 0x43, 0xa8, 0xbc, 0xae, 0x0e, 0x08, 0xbd, 0xa7, 0xda, 0xca, 0x3c, 
 0x15, 0xdd, 0x6d, 0xbc, 0x82, 0x6c, 0xb6, 0x3c, 0x09, 0xb8, 0xd6, 0xbc, 
 0x3c, 0xc7, 0xa1, 0x3c, 0x7c, 0xad, 0xbe, 0xbc, 0x9c, 0x82, 0x84, 0x3c, 
 0xce, 0xc6, 0x35, 0xbc, 0xe6, 0xe3, 0x3b, 0xbd, 0x38, 0x29, 0x93, 0xba, 
 0x3c, 0x4f, 0x0c, 0x3d, 0x07, 0x00, 0x70, 0xb9, 0xb8, 0xb6, 0xee, 0xbc, 
 0x1e, 0x36, 0x1d, 0xbd, 0x1c, 0x52, 0x1c, 0xbd, 0x2f, 0x78, 0x0d, 0xbd, 
 0x54, 0xe2, 0x06, 0xbd, 0x3a, 0xdd, 0x0e, 0xbd, 0x30, 0xe4, 0x1e, 0x3c, 
 0xb7, 0x82, 0x60, 0xbc, 0x64, 0xae, 0x28, 0xbd, 0x82, 0x58, 0x4a, 0x3c, 
 0x78, 0x48, 0xe1, 0x3c, 0x7b, 0xac, 0x90, 0x3c, 0x63, 0x30, 0x88, 0xbc, 
 0x07, 0x53, 0xaf, 0x3b, 0xb0, 0xcb, 0xbc, 0xbb, 0x36, 0xd0, 0x51, 0x3d, 
 0x98, 0xf4, 0xae, 0x3c, 0x2b, 0x58, 0x0c, 0x3d, 0x61, 0x01, 0x7c, 0x3c, 
 0x20, 0x17, 0x11, 0x3d, 0x68, 0xca, 0x38, 0x3c, 0x55, 0x78, 0x2b, 0x3d, 
 0xc5, 0xd9, 0x6a, 0x3c, 0xb0, 0x66, 0xd7, 0x3c, 0x62, 0x56, 0xf0, 0xbb, 
 0x0e, 0x68, 0x08, 0xbc, 0xba, 0x6e, 0x25, 0x3c, 0x91, 0x0a, 0xbe, 0x3c, 
 0x1a, 0x59, 0xb4, 0xbb, 0x9d, 0xeb, 0x0a, 0x3d, 0xeb, 0xd5, 0x16, 0xbd, 
 0x6a, 0x53, 0xe6, 0xbc, 0x51, 0xe4, 0x83, 0x3b, 0x61, 0x6c, 0x04, 0xbc, 
 0x9d, 0xb5, 0xdc, 0xbc, 0xaf, 0x40, 0x5b, 0xbc, 0x6c, 0xb9, 0xec, 0xbc, 
 0x4d, 0xad, 0x74, 0xbc, 0x5b, 0x1d, 0xd3, 0xbc, 0xed, 0x9b, 0x82, 0x3c, 
 0xeb, 0x4b, 0x96, 0x3c, 0x1c, 0x4d, 0xa6, 0xbc, 0x54, 0x9a, 0xeb, 0x3c, 
 0x0b, 0xe5, 0xfd, 0xbc, 0x71, 0x10, 0xc7, 0xbc, 0xf1, 0x87, 0xc6, 0xbc, 
 0x98, 0xcb, 0x77, 0xbc, 0x52, 0xfd, 0xd3, 0xbc, 0x2c, 0x3a, 0x5e, 0xbc, 
 0x69, 0x94, 0x95, 0x3c, 0xc1, 0x71, 0x96, 0x3b, 0x11, 0x94, 0x13, 0x3c, 
 0x0f, 0x7a, 0x8b, 0xbc, 0x5b, 0x8e, 0x09, 0xbd, 0xe6, 0x11, 0xe6, 0x3c, 
 0xc4, 0x75, 0x12, 0xbd, 0x71, 0x03, 0x7c, 0xbc, 0x7d, 0xfc, 0xb6, 0xba, 
 0x92, 0xe1, 0xe9, 0x3c, 0xd1, 0x08, 0xd5, 0x3c, 0x40, 0x79, 0xad, 0x3b, 
 0x4a, 0xc7, 0x0a, 0xbd, 0xc4, 0xd8, 0x6a, 0xbc, 0xc1, 0xe0, 0x28, 0xbd, 
 0x63, 0x52, 0x79, 0x3c, 0x5d, 0x92, 0x01, 0x3b, 0x7a, 0xec, 0xb1, 0x3c, 
 0xb5, 0x53, 0x1b, 0xbd, 0x5e, 0x72, 0x2e, 0xbd, 0xdb, 0x69, 0x4b, 0xbc, 
 0x9b, 0x61, 0x8f, 0xbb, 0x58, 0x0b, 0x78, 0xbc, 0xff, 0x3b, 0xba, 0xbc, 
 0x9e, 0xaf, 0xc5, 0x3c, 0x00, 0x18, 0x96, 0xbc, 0xd5, 0x88, 0x07, 0x3d, 
 0x16, 0x29, 0x3d, 0xbc, 0xf3, 0xa0, 0xf5, 0xbc, 0x42, 0x30, 0x64, 0xbc, 
 0xdd, 0x51, 0xd4, 0xbc, 0x0e, 0x25, 0x49, 0x39, 0x55, 0x17, 0xb3, 0x3c, 
 0x2c, 0xa2, 0x03, 0x3d, 0xa6, 0x06, 0x5e, 0xbd, 0x04, 0x82, 0xec, 0x3b, 
 0x74, 0xe0, 0x93, 0x3b, 0xf2, 0x18, 0x91, 0x3c, 0xe1, 0xf3, 0x63, 0xbc, 
 0x1f, 0xd3, 0x4c, 0xbc, 0x6d, 0x6b, 0x91, 0xbc, 0x9b, 0xfd, 0x09, 0xbd, 
 0x35, 0x6d, 0xfa, 0xbc, 0x16, 0x89, 0xd0, 0xbc, 0x72, 0xab, 0x95, 0xbc, 
 0x62, 0xae, 0xc0, 0x3c, 0xa7, 0x0e, 0xfc, 0x3a, 0xb5, 0xc1, 0x76, 0x3b, 
 0xe4, 0x83, 0x47, 0xbd, 0x90, 0x94, 0x92, 0xba, 0xe8, 0x63, 0xf0, 0x3c, 
 0x89, 0x5a, 0x08, 0xbb, 0x8f, 0xf1, 0xe2, 0xbb, 0xf9, 0xd5, 0x97, 0x3c, 
 0x14, 0x22, 0xbe, 0x3c, 0xe6, 0x22, 0x53, 0x3b, 0x3c, 0xb6, 0xe4, 0x3b, 
 0xcd, 0x72, 0x42, 0x3b, 0x9d, 0x1b, 0x20, 0xbd, 0x68, 0x2c, 0x38, 0x3c, 
 0x1d, 0xd5, 0xaf, 0xbc, 0xaa, 0x4a, 0x7c, 0x3c, 0xf1, 0x92, 0x9d, 0x3c, 
 0xef, 0xc6, 0xaa, 0xbc, 0xb3, 0x2e, 0x18, 0xbd, 0x6c, 0xc1, 0x44, 0xbd, 
 0xb5, 0x97, 0xca, 0xbc, 0xab, 0x35, 0x6b, 0xbd, 0x38, 0xbd, 0x5c, 0xbd, 
 0xaa, 0x64, 0x48, 0xbd, 0x1f, 0x67, 0x93, 0x3c, 0x4b, 0xd8, 0xcb, 0xba, 
 0xb4, 0x26, 0x46, 0xbd, 0xaa, 0xa0, 0x4f, 0x3c, 0x79, 0xb0, 0xf6, 0x3b, 
 0x26, 0x23, 0xc2, 0x3c, 0xbb, 0x15, 0xe3, 0xbc, 0x8a, 0xcb, 0x44, 0x3c, 
 0xf6, 0x70, 0x56, 0xbc, 0xfa, 0x0a, 0xb5, 0x3c, 0xef, 0x32, 0xf4, 0xba, 
 0x4a, 0xe8, 0xae, 0x3b, 0x60, 0xda, 0xc1, 0xb8, 0x5f, 0x96, 0x02, 0xbd, 
 0x32, 0x9f, 0xbf, 0xbb, 0xbb, 0x3c, 0x31, 0xbc, 0x50, 0xa8, 0x59, 0x3c, 
 0xfc, 0xea, 0xee, 0xbc, 0x7d, 0xe1, 0xaf, 0x3c, 0xb7, 0xc3, 0x47, 0x3c, 
 0x0a, 0xdf, 0x71, 0xbc, 0xb1, 0x9c, 0xfc, 0xbc, 0x7f, 0x68, 0x45, 0x3c, 
 0x4f, 0x00, 0x41, 0xbd, 0xa0, 0x8b, 0xa6, 0x3c, 0x18, 0x2a, 0x16, 0xbd, 
 0x50, 0x18, 0xaf, 0xbb, 0x2c, 0x13, 0x87, 0x3c, 0xe1, 0xb9, 0xb9, 0xbc, 
 0xe6, 0x5f, 0x24, 0xbd, 0x8e, 0x83, 0x1a, 0xbd, 0xaf, 0xdf, 0xd5, 0x3c, 
 0x04, 0xb2, 0x94, 0xbc, 0x87, 0x70, 0x43, 0x3c, 0x88, 0x02, 0x22, 0xbd, 
 0xac, 0xdf, 0x23, 0xbd, 0xe0, 0x5f, 0x92, 0xbc, 0x58, 0x08, 0xf7, 0xbc, 
 0x27, 0x57, 0x1b, 0xbd, 0x03, 0xca, 0xa6, 0x3c, 0xe8, 0xe8, 0xa5, 0x3b, 
 0x79, 0x1f, 0x99, 0xbb, 0xb3, 0x31, 0x43, 0xbd, 0x67, 0xe5, 0xef, 0x3c, 
 0xf1, 0xfb, 0x23, 0xbd, 0x1d, 0xcb, 0x09, 0xbc, 0xb8, 0xc8, 0x19, 0xbd, 
 0x5c, 0x0d, 0x09, 0x3c, 0xf6, 0xf1, 0x90, 0xbc, 0xc7, 0xd7, 0x62, 0x3c, 
 0xac, 0xdd, 0xd3, 0xbc, 0x41, 0x67, 0x36, 0xbd, 0xbd, 0xb8, 0x0f, 0x3b, 
 0x69, 0xe8, 0x72, 0xbc, 0xe8, 0x45, 0xbf, 0x3c, 0x0b, 0x48, 0xd9, 0xbc, 
 0x19, 0x9b, 0xa9, 0xbc, 0x01, 0x2c, 0x6b, 0x3c, 0x97, 0xeb, 0x99, 0x3b, 
 0x20, 0x9e, 0x7b, 0xbb, 0x61, 0x52, 0xa0, 0x3c, 0xb9, 0x59, 0x29, 0xbd, 
 0x2c, 0x21, 0x51, 0xbd, 0xb1, 0x87, 0x41, 0xbc, 0xe5, 0x4b, 0x23, 0xbc, 
 0xef, 0x3b, 0x26, 0xbd, 0x2a, 0xe9, 0xe9, 0xbc, 0x5d, 0xc1, 0x19, 0xbd, 
 0x4a, 0x5c, 0xa0, 0xbb, 0xc1, 0xec, 0xd4, 0x3c, 0x46, 0x5a, 0x45, 0xbd, 
 0x27, 0xb4, 0x51, 0xbd, 0x1f, 0x0c, 0xec, 0xbc, 0xd7, 0x31, 0xc6, 0x3c, 
 0x8a, 0x7b, 0x1f, 0xbc, 0x79, 0x6b, 0xec, 0x3a, 0x3b, 0xf4, 0x8e, 0x3c, 
 0x9a, 0x49, 0x16, 0xbc, 0x3e, 0x38, 0x6d, 0x3c, 0x52, 0x5c, 0x17, 0xbd, 
 0xf5, 0x55, 0xa9, 0xbc, 0xb3, 0x4e, 0xed, 0xbc, 0x7a, 0x53, 0x69, 0x3c, 
 0x3c, 0x8f, 0x1b, 0x3c, 0x52, 0xaf, 0x51, 0xbd, 0x39, 0x34, 0x32, 0xbd, 
 0x45, 0x51, 0x93, 0xbc, 0x08, 0xe7, 0xd2, 0x3c, 0x8b, 0x03, 0x3a, 0xbc, 
 0x96, 0xdd, 0x31, 0xbc, 0x9c, 0xae, 0x95, 0xba, 0xc7, 0x6d, 0xbe, 0xbb, 
 0xb7, 0x21, 0xf8, 0xbc, 0x66, 0x94, 0xd5, 0xbb, 0x0c, 0x38, 0x54, 0xbc, 
 0xcb, 0x50, 0x1d, 0xbc, 0x6f, 0x50, 0xb3, 0xbc, 0xdd, 0x93, 0xb9, 0xbc, 
 0xd8, 0x2a, 0x0e, 0x3d, 0x59, 0xc2, 0xfe, 0x3c, 0x25, 0xc7, 0xce, 0xbc, 
 0xed, 0x33, 0x8d, 0x3c, 0xcd, 0x90, 0x1d, 0x3d, 0xa2, 0x6e, 0x29, 0x3c, 
 0x6b, 0x48, 0x1b, 0xbd, 0x44, 0x41, 0xe2, 0x3a, 0x23, 0x00, 0x2f, 0x3c, 
 0x5f, 0x94, 0x69, 0xbb, 0xf2, 0xf7, 0x14, 0x3d, 0x56, 0x1e, 0x54, 0x3c, 
 0x65, 0xc2, 0x04, 0xbd, 0xa8, 0x75, 0xf3, 0x3b, 0xc0, 0xeb, 0x1f, 0xbd, 
 0xc5, 0x4c, 0xc2, 0x3c, 0x07, 0x41, 0x72, 0x3c, 0xeb, 0x7b, 0x8f, 0x3c, 
 0xa6, 0xb4, 0xde, 0xbb, 0x56, 0x6a, 0x3c, 0xba, 0x3d, 0xe7, 0x48, 0xbc, 
 0x2a, 0x4d, 0xcb, 0xba, 0xe8, 0xb9, 0x9f, 0xbc, 0x2b, 0xbb, 0x58, 0xbc, 
 0xfe, 0xd7, 0x69, 0xbc, 0xfd, 0xd4, 0xb6, 0x3c, 0x74, 0x86, 0xf5, 0xbc, 
 0xa4, 0xc3, 0xb0, 0x3c, 0xdf, 0x2a, 0xc3, 0x3a, 0x01, 0x12, 0x1f, 0x3c, 
 0xc9, 0x47, 0x0e, 0xbd, 0x8a, 0x67, 0x40, 0xbc, 0xe6, 0x2d, 0xb2, 0x3c, 
 0xe8, 0xce, 0x48, 0x3d, 0xa6, 0x7a, 0x16, 0x3d, 0x91, 0x70, 0x74, 0x3c, 
 0x50, 0xdd, 0xdc, 0xbc, 0xd7, 0xbb, 0x4c, 0x3c, 0xf8, 0xff, 0xa0, 0x3c, 
 0x17, 0x03, 0x1a, 0x3c, 0x51, 0x25, 0xe3, 0xbc, 0x21, 0x4e, 0xe9, 0xbc, 
 0x1b, 0x10, 0x72, 0x3c, 0xaa, 0xd9, 0xa2, 0xbc, 0x8c, 0xc5, 0x1d, 0x39, 
 0x40, 0x8a, 0x8b, 0x39, 0xe0, 0xcc, 0x13, 0x3d, 0xb2, 0x75, 0x90, 0xbc, 
 0x40, 0xc8, 0xf3, 0x3c, 0x35, 0xf9, 0x55, 0xbc, 0xae, 0x1e, 0x46, 0x3b, 
 0x52, 0x7f, 0xaa, 0x3c, 0x6a, 0x13, 0xa5, 0xbb, 0xba, 0x72, 0xfc, 0xbc, 
 0x2f, 0x2f, 0xba, 0xbc, 0x58, 0x94, 0x18, 0xba, 0x88, 0x12, 0x95, 0x3c, 
 0x4f, 0xcb, 0x1b, 0x3d, 0x52, 0xbd, 0x04, 0x39, 0x3f, 0xda, 0xfd, 0x3c, 
 0xc6, 0x6f, 0xa6, 0x3c, 0x9c, 0x38, 0x9c, 0x3c, 0x4d, 0xe5, 0xe9, 0xbc, 
 0x4b, 0xa3, 0xdd, 0x3b, 0x24, 0x38, 0x20, 0x3c, 0x5d, 0xf0, 0xdb, 0x3c, 
 0xbd, 0xc1, 0xe2, 0xbc, 0xd4, 0xee, 0xe5, 0xbc, 0x1d, 0x05, 0x28, 0xbd, 
 0xdf, 0xa4, 0x5c, 0x3b, 0xa9, 0x64, 0x1b, 0x3d, 0x31, 0xdb, 0x80, 0x3c, 
 0x04, 0x27, 0x33, 0x3d, 0xc3, 0x5a, 0x0f, 0xbd, 0xf6, 0x9b, 0x9f, 0x3c, 
 0x91, 0x0e, 0xe9, 0xba, 0x32, 0xe9, 0x51, 0x3b, 0x46, 0x2b, 0xb7, 0xbc, 
 0xe8, 0xc1, 0xc2, 0xbb, 0x09, 0x2d, 0xa5, 0x3c, 0xfd, 0x42, 0x33, 0x3d, 
 0x30, 0x90, 0xcd, 0xbb, 0xc4, 0xb5, 0x15, 0x3d, 0xb6, 0x52, 0x59, 0xbb, 
 0x0d, 0x3e, 0xd4, 0x3b, 0xd2, 0xa9, 0xbf, 0xbc, 0xc1, 0x75, 0x3f, 0x3d, 
 0x58, 0xe6, 0xf2, 0x3a, 0x43, 0x4f, 0xa3, 0x3c, 0x2c, 0x55, 0x22, 0x3d, 
 0x9e, 0x93, 0xa2, 0x3c, 0x2c, 0x59, 0x68, 0xbc, 0xef, 0x9b, 0xc9, 0x3c, 
 0x9e, 0x71, 0xd1, 0xbc, 0x7b, 0x98, 0xb5, 0xbc, 0xd8, 0x54, 0xab, 0xbb, 
 0x79, 0x12, 0x6e, 0xbc, 0xca, 0x9a, 0xad, 0xbc, 0x35, 0xc9, 0xd0, 0x3c, 
 0x4e, 0x34, 0x28, 0x3d, 0x3c, 0x17, 0x67, 0x3c, 0xcb, 0xa0, 0x20, 0xbd, 
 0x4e, 0x69, 0xa5, 0xbc, 0x60, 0xe5, 0x43, 0x3d, 0x32, 0xc1, 0xe3, 0xbc, 
 0x93, 0x07, 0x20, 0x3d, 0xa5, 0x5f, 0xc6, 0xbc, 0x24, 0x70, 0x8b, 0x3c, 
 0x74, 0x12, 0x50, 0x3c, 0x95, 0x2b, 0x29, 0xbc, 0xaa, 0x59, 0xb5, 0xbc, 
 0x5c, 0xb1, 0x42, 0x3b, 0x35, 0xf4, 0xa7, 0xbc, 0x3b, 0x48, 0x35, 0x3d, 
 0xf3, 0x4a, 0xd0, 0xbc, 0x84, 0x13, 0x21, 0x3d, 0xbc, 0x60, 0xaf, 0xbb, 
 0x01, 0x2a, 0x96, 0xbc, 0x02, 0x6a, 0xb1, 0xbc, 0x93, 0x59, 0x7b, 0xbb, 
 0x61, 0x10, 0xc6, 0x3c, 0x0e, 0x2d, 0xb9, 0x3c, 0xab, 0x98, 0xf7, 0xbb, 
 0xf7, 0x11, 0xc7, 0x3c, 0xba, 0x00, 0x8c, 0x3c, 0xcb, 0xff, 0x71, 0xbb, 
 0x30, 0xea, 0xf3, 0x3c, 0x8d, 0x5a, 0x28, 0x3d, 0x1f, 0x3c, 0xca, 0x3b, 
 0xc4, 0x6d, 0x22, 0xbd, 0xf3, 0x2a, 0xa5, 0xbc, 0x55, 0x8b, 0x79, 0xbc, 
 0x60, 0x45, 0xe6, 0xbc, 0x62, 0xdf, 0xcd, 0x3c, 0xc5, 0xc2, 0x04, 0x3d, 
 0xe1, 0x22, 0x8f, 0xbc, 0x84, 0xb0, 0xef, 0xbc, 0xf2, 0xba, 0x35, 0x3c, 
 0x7d, 0xc1, 0x03, 0xbd, 0x37, 0x1e, 0x36, 0x3c, 0xe7, 0xdc, 0xa1, 0xbc, 
 0xc3, 0x87, 0xe5, 0x3b, 0x33, 0x99, 0x13, 0xbc, 0x22, 0xc3, 0x00, 0xbd, 
 0x1a, 0x6a, 0x20, 0x3d, 0x21, 0x30, 0x22, 0x3d, 0x4f, 0x6d, 0xaf, 0x3c, 
 0x8b, 0x89, 0xd3, 0x3c, 0xa2, 0x9d, 0xf3, 0xbc, 0xbd, 0x6c, 0xd5, 0xbc, 
 0xd1, 0x52, 0x3d, 0x3c, 0xca, 0x98, 0x06, 0xbd, 0x31, 0xc6, 0x67, 0x3c, 
 0x7c, 0xd4, 0x1b, 0xbc, 0xc5, 0x2b, 0x4e, 0xbc, 0xd2, 0x00, 0x97, 0x3b, 
 0x39, 0x0a, 0x78, 0x3a, 0x6d, 0xfe, 0x10, 0xbd, 0x5a, 0x13, 0x1f, 0x3c, 
 0xb1, 0x65, 0x23, 0x3d, 0x82, 0x9f, 0x65, 0x3a, 0x88, 0x61, 0x0d, 0xbd, 
 0x17, 0x89, 0x9a, 0xbc, 0xbe, 0x9b, 0x0e, 0x3c, 0xd5, 0xb5, 0x0b, 0xbd, 
 0x74, 0x1d, 0xa2, 0xbb, 0xeb, 0xcc, 0x16, 0x3c, 0x46, 0x0f, 0x09, 0xbd, 
 0xd6, 0x9c, 0x3c, 0xbd, 0x6b, 0xe2, 0xde, 0xbc, 0x67, 0x57, 0x01, 0x3d, 
 0xd4, 0xbf, 0x51, 0x3c, 0xd5, 0x54, 0xe1, 0xbc, 0x6d, 0xd0, 0x31, 0xbd, 
 0xe4, 0xa2, 0x69, 0x3b, 0x56, 0x44, 0xd5, 0xbc, 0x0f, 0x75, 0x18, 0xbd, 
 0x5f, 0x8f, 0xe1, 0x3b, 0xd5, 0x35, 0xe2, 0x3b, 0x3c, 0xa6, 0x2b, 0xbd, 
 0xd2, 0xe2, 0x98, 0x3b, 0x3c, 0x2b, 0x33, 0xbd, 0xd9, 0xad, 0x35, 0x3d, 
 0x56, 0x6e, 0xe5, 0x3c, 0x3b, 0xc9, 0x42, 0xbc, 0x38, 0x67, 0x25, 0xbd, 
 0x3f, 0xec, 0xb6, 0x3b, 0xe7, 0x2f, 0x97, 0x3c, 0x62, 0x3f, 0x1c, 0x3d, 
 0x4a, 0xff, 0x13, 0xbc, 0x4a, 0x8a, 0xa1, 0x3c, 0x15, 0x4b, 0xb0, 0xbb, 
 0xb6, 0x62, 0xf6, 0xbc, 0x21, 0xf3, 0x96, 0x3c, 0xe7, 0x18, 0xbb, 0x3c, 
 0x4b, 0xbb, 0xd6, 0xbb, 0x14, 0xde, 0xa2, 0xbc, 0x29, 0x7c, 0xe6, 0xbc, 
 0xd4, 0xb0, 0x7c, 0xbc, 0x29, 0x24, 0xa5, 0x3c, 0x8b, 0x73, 0xdc, 0xba, 
 0x14, 0x4a, 0x4b, 0x3d, 0x63, 0x72, 0xba, 0x3c, 0x44, 0xe4, 0x0f, 0xbd, 
 0xac, 0x08, 0xf1, 0x3c, 0x34, 0x37, 0x0a, 0xbd, 0x44, 0x5d, 0x81, 0xbc, 
 0x13, 0x41, 0x8b, 0xbb, 0x9a, 0x38, 0x32, 0xbc, 0xc8, 0x90, 0xf0, 0x3c, 
 0xc6, 0x69, 0x28, 0x3d, 0x64, 0xcc, 0x59, 0x3d, 0x64, 0x59, 0xe9, 0x3c, 
 0x61, 0xf7, 0x18, 0x3d, 0xe3, 0xc2, 0xbb, 0x3c, 0xbe, 0x49, 0xf4, 0xbc, 
 0x78, 0x89, 0x39, 0x3c, 0x4c, 0x61, 0xcb, 0x3c, 0x2f, 0x54, 0xcd, 0xbc, 
 0xca, 0x1e, 0xf4, 0xbb, 0x58, 0x4d, 0xd0, 0xbc, 0xe2, 0xdc, 0x37, 0x3c, 
 0x70, 0xee, 0xc3, 0xbc, 0x61, 0x1f, 0x9f, 0xbc, 0x8c, 0x37, 0xac, 0x3c, 
 0x52, 0xc2, 0x02, 0xbc, 0xab, 0x1a, 0x5a, 0xbc, 0x6e, 0xcb, 0xe1, 0xbb, 
 0xf1, 0x13, 0x78, 0x3c, 0xbc, 0x65, 0xc9, 0x3c, 0xa2, 0x1d, 0xa1, 0x3c, 
 0xba, 0x8f, 0x36, 0x3c, 0x74, 0xfc, 0x4c, 0xbd, 0x0f, 0xbb, 0x13, 0xbd, 
 0x95, 0x84, 0xa1, 0x3c, 0x57, 0xa4, 0xeb, 0x3c, 0xe6, 0x27, 0xcf, 0xbc, 
 0x8e, 0xcc, 0xee, 0xba, 0x6f, 0x1d, 0x06, 0x3d, 0x99, 0xf0, 0x03, 0x3d, 
 0x51, 0x7f, 0xcb, 0x3b, 0xbe, 0x13, 0x2f, 0x3d, 0x08, 0x4c, 0xd3, 0x3c, 
 0xc2, 0x32, 0x01, 0xbc, 0x79, 0xb7, 0xbc, 0x3c, 0xca, 0x9a, 0xf8, 0xbb, 
 0xb3, 0xfd, 0x7d, 0x3c, 0xc4, 0xc4, 0x16, 0x3d, 0xcb, 0x77, 0x51, 0xbc, 
 0x2d, 0xe4, 0xd7, 0x3c, 0x0f, 0x08, 0x25, 0x3d, 0x65, 0xd5, 0x0c, 0x3d, 
 0xa2, 0x16, 0x1f, 0x3d, 0x83, 0xec, 0x3f, 0x3d, 0xd0, 0xcc, 0xfd, 0xbc, 
 0xf0, 0x94, 0x12, 0xbd, 0x02, 0x81, 0x12, 0x39, 0x82, 0x5f, 0xa1, 0x3c, 
 0xd8, 0x0f, 0xd8, 0xbb, 0xd7, 0xc3, 0xad, 0xbc, 0x8f, 0x01, 0x1f, 0xbd, 
 0x76, 0xf2, 0xe8, 0xbc, 0xca, 0xca, 0x84, 0xbb, 0x07, 0x69, 0x43, 0xbd, 
 0x1a, 0x9a, 0xdf, 0x3c, 0x85, 0xbb, 0x14, 0xbc, 0xda, 0x20, 0xff, 0xbc, 
 0x27, 0x4a, 0xb4, 0x3c, 0xce, 0x69, 0x34, 0xbd, 0x42, 0x2c, 0x23, 0xbd, 
 0xbc, 0xbc, 0x83, 0xbc, 0xba, 0xe3, 0xe6, 0xbc, 0x1c, 0xeb, 0xda, 0xbc, 
 0x84, 0x79, 0x61, 0x3c, 0x18, 0x01, 0x31, 0xbd, 0x2b, 0xd0, 0xe0, 0x3c, 
 0xde, 0xc4, 0x02, 0x3c, 0x3a, 0x7a, 0x02, 0xbd, 0xc4, 0x13, 0x8f, 0x3b, 
 0xd4, 0x07, 0x19, 0x3d, 0xa2, 0xc2, 0x52, 0xbc, 0x5f, 0xd8, 0x18, 0xbd, 
 0xb8, 0x43, 0x19, 0x3d, 0x2e, 0x15, 0x23, 0x3d, 0x98, 0x0c, 0x9b, 0xbc, 
 0x00, 0xf0, 0xdd, 0xbc, 0xe7, 0x02, 0xe1, 0x3c, 0x88, 0x58, 0x8a, 0xbb, 
 0x9d, 0xba, 0x25, 0xbc, 0xbc, 0xd1, 0x23, 0x3d, 0xec, 0xd4, 0xa5, 0x3c, 
 0x7d, 0xfd, 0xa2, 0x3c, 0x39, 0x6c, 0x2e, 0x3b, 0x02, 0x67, 0xae, 0x3c, 
 0x5c, 0x92, 0xf3, 0x3c, 0xbb, 0x09, 0xff, 0xbc, 0xbc, 0x24, 0xef, 0x3b, 
 0xce, 0x37, 0x03, 0x3d, 0xb4, 0xd5, 0x2e, 0x3c, 0x36, 0x89, 0x6c, 0xbd, 
 0x59, 0x00, 0x57, 0xba, 0x82, 0xa9, 0xb9, 0x3c, 0x93, 0xbe, 0xd4, 0xbc, 
 0x18, 0x71, 0x33, 0xbd, 0xda, 0x99, 0x41, 0x3b, 0x60, 0x8d, 0x1a, 0xbd, 
 0xfe, 0x2d, 0xab, 0xbc, 0xb1, 0x1d, 0x56, 0x3b, 0x64, 0x91, 0xcb, 0x3c, 
 0x0a, 0x8a, 0x06, 0xbd, 0x21, 0x51, 0x96, 0x39, 0xf9, 0x7b, 0x58, 0xbd, 
 0x25, 0x93, 0x3f, 0xbc, 0x84, 0xb3, 0x1c, 0x3c, 0xfd, 0x26, 0x0a, 0x3b, 
 0x86, 0x61, 0xc3, 0x3c, 0xee, 0x37, 0xb8, 0xbc, 0x89, 0x22, 0x27, 0xbd, 
 0x37, 0x40, 0x27, 0x3c, 0x77, 0x39, 0x22, 0x3c, 0x96, 0x33, 0x15, 0xbd, 
 0x68, 0xb1, 0x06, 0xbc, 0xb7, 0x96, 0x61, 0x3c, 0x45, 0x5a, 0x27, 0xbc, 
 0x76, 0xe2, 0xec, 0xbc, 0xcf, 0xcb, 0x23, 0xbd, 0xe2, 0x26, 0xa4, 0xbc, 
 0xff, 0x2a, 0xa9, 0xbc, 0xa7, 0x67, 0x25, 0xbd, 0xdd, 0xb0, 0x17, 0x3b, 
 0xf8, 0xc1, 0x9c, 0x3c, 0x5b, 0x02, 0xb8, 0x3c, 0x70, 0x58, 0xea, 0xbc, 
 0x93, 0x38, 0x20, 0xbb, 0x5d, 0x74, 0xc8, 0xbb, 0x5a, 0xf6, 0x83, 0x3c, 
 0x3f, 0x00, 0x7f, 0x3b, 0x8a, 0x39, 0x19, 0xbc, 0xf0, 0x35, 0xb8, 0xbb, 
 0x33, 0x4b, 0x24, 0x3c, 0x47, 0x36, 0xf0, 0x3c, 0xa3, 0x71, 0x40, 0xbb, 
 0x66, 0xec, 0xcd, 0x3c, 0x5e, 0x38, 0x0e, 0x3d, 0x7e, 0x4a, 0x1e, 0xbd, 
 0x4b, 0xb0, 0x44, 0xbc, 0x99, 0x38, 0x11, 0x3d, 0xd2, 0x44, 0x88, 0xbc, 
 0x50, 0x15, 0x8e, 0xbc, 0x0f, 0xe5, 0xc1, 0xba, 0x03, 0xd5, 0xf7, 0xbb, 
 0x4b, 0x54, 0x87, 0xbc, 0xc3, 0x51, 0xda, 0x3c, 0xbc, 0x52, 0xaa, 0xbc, 
 0x80, 0x04, 0x1b, 0xba, 0xad, 0xbd, 0x59, 0x3b, 0xdb, 0x53, 0x4f, 0xba, 
 0x27, 0x1d, 0x59, 0x3d, 0x59, 0x88, 0x79, 0x3a, 0xa7, 0xd4, 0x3b, 0xbd, 
 0x95, 0xef, 0xae, 0x3c, 0x81, 0x7f, 0x70, 0x3c, 0x13, 0x82, 0x53, 0xbd, 
 0x71, 0x13, 0xe0, 0xbc, 0xaa, 0x6f, 0x1b, 0x3d, 0x58, 0xf4, 0xb0, 0xbc, 
 0x80, 0x71, 0xca, 0xbc, 0x26, 0x0a, 0x1c, 0x3d, 0x9b, 0x35, 0x49, 0x3b, 
 0x5b, 0xb2, 0xc4, 0xbc, 0xf3, 0x7e, 0x47, 0xbd, 0xa3, 0x52, 0x01, 0xbd, 
 0x60, 0x4d, 0x98, 0x3b, 0x26, 0x2d, 0x6c, 0x3b, 0x41, 0xe0, 0x89, 0x3c, 
 0xa0, 0x50, 0x2b, 0xbc, 0x37, 0xd0, 0x5c, 0xbd, 0xe5, 0x8d, 0xbc, 0xbc, 
 0x73, 0x53, 0xe2, 0xbc, 0xa5, 0x34, 0x0c, 0x3c, 0xa4, 0xd2, 0x77, 0x3c, 
 0xb3, 0x2a, 0x46, 0xbd, 0xf1, 0xa7, 0x38, 0x3b, 0x28, 0xa9, 0x27, 0x3d, 
 0xaf, 0x7a, 0xaa, 0xbc, 0x01, 0x73, 0xab, 0x3c, 0x82, 0x1e, 0xfa, 0xbc, 
 0xa8, 0xf9, 0x3e, 0x3d, 0xc8, 0x8b, 0x99, 0xbc, 0x44, 0x76, 0x4a, 0x3c, 
 0x76, 0x93, 0x0c, 0x3d, 0x34, 0x34, 0x0c, 0x3d, 0x24, 0x0e, 0x37, 0x3c, 
 0x32, 0x81, 0x0b, 0x3d, 0x3a, 0xf3, 0x40, 0x3d, 0x64, 0x4e, 0xd1, 0x3b, 
 0xb6, 0x17, 0xf5, 0xbb, 0x4a, 0x72, 0x38, 0x3d, 0x08, 0x6e, 0x5f, 0x3d, 
 0x6f, 0x29, 0x04, 0x3c, 0xaf, 0x48, 0x69, 0x3d, 0xc1, 0x13, 0x55, 0x3d, 
 0xad, 0xc1, 0x36, 0x3d, 0x8a, 0x40, 0xab, 0x3c, 0x7a, 0xc6, 0x41, 0x3c, 
 0xd4, 0x44, 0x38, 0x3c, 0x93, 0x0c, 0x70, 0xbc, 0x97, 0x35, 0x0c, 0x3c, 
 0x00, 0xb9, 0x4e, 0x3d, 0x6a, 0x8c, 0xeb, 0x3c, 0xac, 0x8c, 0x36, 0x3d, 
 0xf4, 0x5e, 0x7b, 0x3d, 0x2f, 0x4a, 0x42, 0x3d, 0x39, 0x81, 0x98, 0x3c, 
 0x42, 0x74, 0x2e, 0x3d, 0xc0, 0x5e, 0x46, 0x3d, 0x0a, 0xd1, 0xf4, 0x3c, 
 0xec, 0x99, 0x83, 0x3d, 0xf2, 0xb2, 0x98, 0x3c, 0xd8, 0x18, 0x11, 0x3d, 
 0x2f, 0x16, 0x0d, 0x3d, 0xe6, 0x2f, 0xa9, 0xba, 0xbf, 0x51, 0x5b, 0x3c, 
 0x53, 0xda, 0x34, 0x3d, 0x1e, 0x85, 0x06, 0xbc, 0xdd, 0x1d, 0xfa, 0xba, 
 0x32, 0x02, 0x85, 0x3d, 0xd4, 0x16, 0xdb, 0x3c, 0x0b, 0xec, 0x65, 0x3d, 
 0x97, 0xf5, 0x32, 0x3d, 0xd3, 0x99, 0x51, 0x3d, 0x07, 0xae, 0x59, 0xbb, 
 0xd7, 0x39, 0x80, 0x3d, 0x8e, 0xc7, 0x23, 0x3d, 0xce, 0xc5, 0x7d, 0x3c, 
 0x4c, 0x04, 0x87, 0x3d, 0x97, 0x44, 0x0e, 0x3d, 0x2a, 0x1a, 0x74, 0x3d, 
 0x91, 0x7f, 0x30, 0x3d, 0x56, 0xa4, 0xf2, 0x3c, 0x7f, 0xa3, 0x19, 0x3d, 
 0xdd, 0x8d, 0x7c, 0x3d, 0x32, 0x8a, 0xe5, 0xbb, 0x2c, 0x88, 0xcc, 0x3c, 
 0x3b, 0xfe, 0x86, 0x3d, 0x47, 0xb0, 0x8c, 0x3d, 0x45, 0xad, 0x53, 0x3d, 
 0xd8, 0x5d, 0x82, 0x3d, 0xf9, 0xee, 0x40, 0x3c, 0xab, 0x74, 0x31, 0x3d, 
 0xb9, 0x08, 0xcc, 0x3a, 0xc1, 0x59, 0x85, 0x3d, 0xac, 0xe1, 0xb4, 0x3c, 
 0x47, 0x38, 0x95, 0x3c, 0x7a, 0xbb, 0x7b, 0x3d, 0x55, 0xdd, 0xab, 0xb9, 
 0x78, 0xc7, 0x01, 0x3d, 0x15, 0x4c, 0x26, 0x3d, 0x8b, 0x8d, 0x5f, 0x3c, 
 0x50, 0x0d, 0x24, 0x3d, 0x85, 0x0d, 0x6c, 0x3d, 0x13, 0xb7, 0xf8, 0x3c, 
 0x4c, 0x3c, 0x5e, 0x3d, 0x89, 0x6f, 0xa4, 0xbb, 0x7d, 0xbe, 0xa0, 0xbc, 
 0x25, 0x00, 0x2e, 0xbc, 0x16, 0xf7, 0x72, 0x3c, 0xb5, 0x33, 0xc9, 0x3c, 
 0x99, 0x24, 0xb1, 0x3c, 0x1e, 0x6e, 0xcd, 0x3c, 0x73, 0x75, 0x36, 0x3d, 
 0x52, 0x57, 0x6c, 0x3d, 0x95, 0xc7, 0x38, 0x3c, 0x73, 0x16, 0xf9, 0xbb, 
 0x6f, 0xab, 0x86, 0x3d, 0xd1, 0x29, 0x31, 0x3d, 0x94, 0xef, 0x07, 0x3d, 
 0xe3, 0xcd, 0x7b, 0x3d, 0xfa, 0x66, 0xe9, 0xbb, 0xde, 0x41, 0x6a, 0x39, 
 0xdd, 0x57, 0x34, 0x3d, 0xbe, 0x21, 0x1c, 0x3d, 0x68, 0x2c, 0xa7, 0x3b, 
 0xd1, 0xe7, 0xb8, 0x3c, 0xe2, 0xa3, 0x47, 0xbc, 0xce, 0x9c, 0xac, 0x3c, 
 0xfb, 0x33, 0x5d, 0x3d, 0xd9, 0x30, 0x73, 0x3a, 0xec, 0x51, 0xbb, 0x3c, 
 0x65, 0x00, 0x36, 0x3d, 0x57, 0x0e, 0x34, 0x3d, 0x67, 0xe8, 0xa4, 0xbb, 
 0x9d, 0x53, 0x4c, 0x3d, 0xb1, 0x94, 0x34, 0x3d, 0x71, 0x78, 0x5d, 0xbc, 
 0x6b, 0x23, 0x42, 0x3d, 0x55, 0xbe, 0x9e, 0x3a, 0x34, 0x02, 0xcf, 0x3b, 
 0x07, 0xc5, 0x3b, 0x3d, 0xd8, 0x38, 0x9f, 0xbc, 0x2d, 0x9b, 0x3d, 0x3d, 
 0xf7, 0xe1, 0x2a, 0x3d, 0xd8, 0xf1, 0x3f, 0x3c, 0xe7, 0x2b, 0x34, 0x3c, 
 0xf3, 0x2e, 0x62, 0x3d, 0x20, 0x90, 0x3c, 0x3d, 0xb5, 0x2f, 0x68, 0x3d, 
 0x94, 0xb6, 0x73, 0xbc, 0x85, 0xa3, 0x41, 0x3b, 0xb7, 0x8d, 0xc2, 0xbb, 
 0x12, 0x72, 0xaa, 0x3c, 0x74, 0x4b, 0xed, 0x3c, 0xd5, 0x40, 0x55, 0x3d, 
 0x63, 0x6b, 0x84, 0x3d, 0xf7, 0x1f, 0x39, 0x3c, 0x9f, 0x00, 0x53, 0x3d, 
 0x02, 0x44, 0xe5, 0x3c, 0xfc, 0x40, 0x2b, 0x3c, 0x7c, 0xf2, 0x7e, 0x3d, 
 0x95, 0x65, 0x00, 0x3d, 0xfd, 0x70, 0x30, 0x3c, 0x6d, 0x27, 0x11, 0xbc, 
 0x4e, 0x77, 0x6e, 0x3d, 0x5e, 0x1c, 0x34, 0xbc, 0x84, 0x88, 0x78, 0x3c, 
 0x83, 0xc5, 0xf7, 0x3c, 0xde, 0xc5, 0x74, 0x3c, 0x72, 0x95, 0x76, 0x3d, 
 0xdf, 0x75, 0x4f, 0xbc, 0x8d, 0xc3, 0x1e, 0x3b, 0xf6, 0xa6, 0x5e, 0x3d, 
 0x4c, 0x6c, 0x29, 0x3c, 0xb2, 0xa7, 0xb2, 0x3c, 0x8f, 0xa1, 0x77, 0xbc, 
 0xd9, 0x21, 0x6c, 0x3b, 0x25, 0x0c, 0x7b, 0x3d, 0xb0, 0x38, 0x9e, 0xbc, 
 0xd5, 0x27, 0xc9, 0xbb, 0x82, 0xe8, 0x22, 0x3d, 0xe5, 0x30, 0x9f, 0xbc, 
 0xfd, 0xf4, 0x4e, 0x3d, 0x89, 0x0a, 0x62, 0x3d, 0x8a, 0x95, 0x71, 0xbc, 
 0xeb, 0x36, 0xa0, 0xbb, 0x4f, 0xf9, 0x75, 0x3b, 0x57, 0x80, 0xd2, 0xbc, 
 0x67, 0xa0, 0xb6, 0xbb, 0x67, 0x6e, 0x26, 0x3d, 0x74, 0x72, 0x46, 0x3d, 
 0xd9, 0xe2, 0x34, 0x3c, 0x84, 0xab, 0xa3, 0x3c, 0x50, 0x23, 0x56, 0x3c, 
 0x00, 0x53, 0x08, 0xbd, 0x93, 0x67, 0xf8, 0x3c, 0xd7, 0x9c, 0xb8, 0xbc, 
 0x0e, 0x99, 0xba, 0xbc, 0x13, 0x4c, 0x00, 0xbd, 0x46, 0x51, 0x53, 0xbc, 
 0x73, 0x15, 0xca, 0xbb, 0xf2, 0x51, 0x13, 0xbd, 0x07, 0xb3, 0x8c, 0xbb, 
 0xdc, 0x2e, 0x6d, 0xbc, 0xe0, 0xd0, 0x4e, 0xbc, 0x4d, 0xb2, 0x4f, 0xbc, 
 0x73, 0x69, 0x83, 0x3c, 0xeb, 0x69, 0xdb, 0x3b, 0x02, 0xb3, 0x2a, 0xbd, 
 0x03, 0xfb, 0x0b, 0xbd, 0xe8, 0xd9, 0x1a, 0x3c, 0x0d, 0xb1, 0xbc, 0xbc, 
 0xf8, 0xf7, 0xcf, 0x3c, 0x0a, 0xa1, 0x17, 0x3d, 0xf1, 0xd7, 0x97, 0x3c, 
 0xd0, 0xdb, 0x29, 0x3d, 0x49, 0x48, 0x8e, 0xba, 0xe1, 0x6a, 0x91, 0xbc, 
 0xca, 0x5b, 0xfd, 0x3c, 0x79, 0xab, 0xca, 0x3c, 0xe0, 0x46, 0xe8, 0xbc, 
 0x1c, 0x27, 0x1d, 0x3d, 0xca, 0x84, 0xe5, 0x3a, 0x13, 0x4c, 0x0b, 0x3d, 
 0x01, 0x04, 0x7f, 0x3c, 0x58, 0x26, 0x83, 0xbc, 0x47, 0xc8, 0xc2, 0xbc, 
 0x10, 0xda, 0xf1, 0x3c, 0x03, 0xbb, 0xd1, 0xbc, 0x6a, 0xb5, 0x22, 0xbd, 
 0xe6, 0x2b, 0xdf, 0x3c, 0x17, 0xa3, 0x07, 0x3d, 0xdd, 0xd5, 0x9b, 0xbc, 
 0x7c, 0xc9, 0x22, 0xbd, 0x93, 0x0d, 0x22, 0x3d, 0x8e, 0x59, 0x62, 0x3c, 
 0x10, 0xd6, 0x9d, 0xbc, 0xd9, 0xa5, 0x1b, 0xbc, 0x8b, 0xb2, 0xf2, 0xbc, 
 0x69, 0x04, 0xc4, 0xbc, 0x30, 0xb5, 0x96, 0xbc, 0x6a, 0x61, 0x80, 0x3b, 
 0xb0, 0x33, 0x9a, 0x3c, 0x1b, 0xf1, 0x11, 0x3c, 0x4e, 0xa2, 0x54, 0x3c, 
 0xb5, 0x29, 0xdd, 0xbc, 0x5b, 0xcd, 0xb2, 0xbc, 0x43, 0x8d, 0xeb, 0x3c, 
 0xf7, 0xe9, 0x8a, 0xbc, 0x5d, 0xb6, 0xcd, 0xbb, 0x53, 0xca, 0x23, 0xbd, 
 0xea, 0xd7, 0x2d, 0xbc, 0x76, 0x28, 0x32, 0xbd, 0xe1, 0x95, 0xd6, 0x3b, 
 0xc8, 0x14, 0x1e, 0xbd, 0xd5, 0xcd, 0x9e, 0xbc, 0xa9, 0xd8, 0xdc, 0xbc, 
 0xba, 0xfb, 0xad, 0xbc, 0xd8, 0x57, 0xae, 0xbc, 0xd5, 0xbc, 0x87, 0xbc, 
 0x45, 0x4e, 0xa2, 0xbc, 0x1b, 0xce, 0x58, 0xbc, 0xe7, 0xd8, 0x06, 0x3b, 
 0xd3, 0x6e, 0x87, 0x3c, 0xa9, 0x6e, 0x33, 0xbd, 0xa9, 0x02, 0x01, 0x3d, 
 0xfc, 0xca, 0x6b, 0x3c, 0x8d, 0xfe, 0x01, 0xbc, 0xf1, 0x26, 0xc5, 0xbc, 
 0xd1, 0xfc, 0x56, 0xbd, 0x93, 0x96, 0x64, 0xbd, 0xf4, 0xba, 0x22, 0xbc, 
 0x67, 0x63, 0x63, 0x3c, 0x9d, 0xd1, 0xa1, 0x3b, 0xc5, 0x00, 0x85, 0xbc, 
 0x29, 0x41, 0xfd, 0x3c, 0x82, 0x1b, 0x1c, 0xbd, 0x12, 0xbd, 0x38, 0xbc, 
 0x16, 0xb0, 0x42, 0xbd, 0xdc, 0x6b, 0xc7, 0xbc, 0xaf, 0x15, 0x58, 0x3c, 
 0xcc, 0xc5, 0xec, 0x3c, 0xd9, 0x72, 0xef, 0x3c, 0xf7, 0xe0, 0xeb, 0x3c, 
 0x21, 0x4d, 0x39, 0x3d, 0x2f, 0x7f, 0xf6, 0x3c, 0x55, 0x0c, 0x33, 0x3d, 
 0x78, 0x7e, 0x32, 0x3d, 0xef, 0x0f, 0x4c, 0x3d, 0x62, 0xf0, 0xc0, 0x3c, 
 0x44, 0xb9, 0xd2, 0x3c, 0x7e, 0xca, 0x55, 0x3d, 0x8e, 0xf5, 0x30, 0x3d, 
 0xb8, 0xfd, 0xc6, 0xbc, 0xae, 0x6b, 0xa1, 0x3c, 0x60, 0x3e, 0xc4, 0x3c, 
 0x28, 0xba, 0xfb, 0x3a, 0xa0, 0xac, 0x66, 0x3c, 0x7c, 0x40, 0xe2, 0xba, 
 0x98, 0xd3, 0x73, 0xba, 0x67, 0xcb, 0x89, 0x3c, 0x4b, 0x9b, 0xa3, 0x3c, 
 0x5f, 0x00, 0x0c, 0x3c, 0x90, 0x24, 0xb7, 0xbc, 0xec, 0x14, 0x9f, 0x3b, 
 0x44, 0xcd, 0x23, 0xbc, 0xcb, 0x57, 0x9c, 0xbc, 0x4f, 0xf7, 0xf9, 0x3c, 
 0xb3, 0x74, 0x1a, 0x3d, 0x50, 0x2e, 0xf9, 0x3c, 0x4c, 0x95, 0x62, 0x3c, 
 0x30, 0x5a, 0xda, 0xba, 0xf9, 0xc1, 0xc2, 0x3c, 0x95, 0x2e, 0x6f, 0xbb, 
 0x9e, 0x5c, 0x6a, 0x3a, 0xcc, 0xef, 0x98, 0x3c, 0x4d, 0xa6, 0x99, 0x3c, 
 0x7a, 0x1e, 0x36, 0xbd, 0xce, 0x31, 0x9b, 0xbc, 0xbb, 0x5a, 0x36, 0x3d, 
 0xf8, 0xb1, 0x11, 0x3d, 0x86, 0x85, 0xf1, 0x3c, 0x8e, 0x58, 0x33, 0x3d, 
 0x21, 0x4b, 0xdd, 0x3c, 0xfa, 0x6b, 0x0b, 0xbd, 0x6d, 0xd8, 0x19, 0x3d, 
 0xfb, 0xe6, 0xca, 0xbb, 0xbf, 0xdd, 0x59, 0x3d, 0x82, 0xd7, 0xf3, 0x3c, 
 0x34, 0x8f, 0x70, 0xbc, 0xe9, 0x9d, 0xdb, 0xbb, 0xc6, 0xc6, 0x56, 0xbc, 
 0xb1, 0x08, 0x31, 0x3d, 0x64, 0x21, 0x32, 0x3d, 0x33, 0x0e, 0xd4, 0x3b, 
 0x3d, 0xeb, 0xd1, 0x3c, 0xad, 0x09, 0x15, 0x3d, 0xaa, 0xf0, 0x38, 0x3d, 
 0x4a, 0xb4, 0xc9, 0x3c, 0xa4, 0x5b, 0xed, 0xbb, 0x30, 0xb9, 0x02, 0x3d, 
 0x39, 0xf8, 0x35, 0x3d, 0xa3, 0xc4, 0xb3, 0xbc, 0xa1, 0xc3, 0x9c, 0xbb, 
 0x0b, 0x2b, 0x9d, 0x3c, 0xca, 0xe2, 0xff, 0xba, 0x70, 0x29, 0x8e, 0xbc, 
 0xb7, 0x62, 0x93, 0x3c, 0x11, 0x78, 0x04, 0x3d, 0x18, 0x8c, 0x8c, 0xbc, 
 0xc0, 0xcb, 0x34, 0xbc, 0xe9, 0x61, 0x24, 0x3d, 0xff, 0x70, 0x33, 0x3d, 
 0x74, 0x29, 0xb1, 0x3c, 0x9b, 0xee, 0x87, 0xbb, 0x60, 0x10, 0x82, 0x3d, 
 0x38, 0x14, 0xe2, 0x3c, 0xb7, 0x00, 0x62, 0x3d, 0x31, 0xae, 0x0b, 0x3b, 
 0x92, 0x9f, 0x64, 0x3c, 0x05, 0x74, 0x03, 0xbd, 0x3d, 0x0e, 0xbe, 0xbb, 
 0x9c, 0xcf, 0x84, 0x3c, 0xdb, 0x0e, 0x55, 0x3d, 0xbc, 0x5e, 0x85, 0x3c, 
 0x96, 0x20, 0x84, 0x3c, 0x55, 0xd3, 0xa2, 0x3c, 0xae, 0x20, 0x1a, 0x3c, 
 0x82, 0x33, 0x23, 0x3d, 0x02, 0xf4, 0x0e, 0x3d, 0x1f, 0x7f, 0x07, 0x3d, 
 0xef, 0x67, 0xdd, 0xbb, 0x94, 0xd8, 0x76, 0xbb, 0x61, 0xdc, 0x4a, 0x38, 
 0x57, 0xeb, 0x2e, 0xbc, 0xce, 0xce, 0xab, 0x3c, 0x66, 0xf4, 0xc2, 0x3c, 
 0xd1, 0x47, 0x97, 0xbc, 0x6b, 0xfa, 0x20, 0x3d, 0xbc, 0x44, 0x27, 0x3d, 
 0xab, 0x84, 0x98, 0xbc, 0x53, 0xb4, 0x5b, 0x3c, 0xe8, 0x0f, 0x0f, 0x3d, 
 0xf4, 0xec, 0x18, 0x3d, 0x0d, 0xd0, 0x03, 0xbd, 0xc4, 0x31, 0xcc, 0x3c, 
 0x8d, 0x1b, 0x3d, 0x3c, 0x49, 0x4b, 0x49, 0x3c, 0x6c, 0xfa, 0x72, 0x3d, 
 0xef, 0x99, 0x81, 0xbc, 0x02, 0xc6, 0xa2, 0x3c, 0xe0, 0x2a, 0x50, 0x3c, 
 0xbe, 0x0a, 0x90, 0x3c, 0xbb, 0x21, 0x31, 0x3c, 0xa9, 0xb3, 0x05, 0x3d, 
 0x2e, 0x4c, 0xa3, 0x3c, 0x9b, 0x4e, 0x3b, 0x3d, 0x8c, 0x11, 0xc3, 0xbb, 
 0xbf, 0xe5, 0x17, 0x3d, 0x04, 0x04, 0x21, 0x3d, 0x6c, 0xca, 0x19, 0x3c, 
 0x64, 0xbf, 0x50, 0x3d, 0x9f, 0x1c, 0x09, 0x3d, 0xf9, 0xed, 0x52, 0x3d, 
 0x70, 0x31, 0x26, 0x3d, 0xa7, 0x14, 0x24, 0x3c, 0x87, 0x0e, 0x10, 0x3d, 
 0x54, 0x14, 0x98, 0xba, 0x88, 0xd1, 0xf7, 0x3b, 0x8c, 0xdc, 0x81, 0x3b, 
 0x53, 0xbf, 0xeb, 0xbc, 0x9f, 0xf6, 0xaf, 0x3c, 0x17, 0xa1, 0x1e, 0xbc, 
 0x18, 0x20, 0xde, 0xbc, 0x47, 0xe2, 0xc8, 0x3c, 0x15, 0xf7, 0x0b, 0x3d, 
 0xa1, 0x17, 0x3f, 0x3d, 0xd5, 0xe3, 0x46, 0x3c, 0x2b, 0xa1, 0x35, 0x3d, 
 0x70, 0x4e, 0x40, 0x3b, 0xc0, 0x45, 0xda, 0xbc, 0x5f, 0xfa, 0x95, 0x3c, 
 0x88, 0xdc, 0x3d, 0x3d, 0x97, 0x15, 0x47, 0x3d, 0x4b, 0xe5, 0xe9, 0xbc, 
 0x69, 0xae, 0x09, 0xbc, 0x72, 0xee, 0xa0, 0x39, 0xb0, 0xb7, 0xa2, 0xbb, 
 0x71, 0x8e, 0x2a, 0x3d, 0xc1, 0xa7, 0x23, 0x3d, 0xbf, 0x9e, 0xcf, 0xbc, 
 0x8e, 0x62, 0x0a, 0x3d, 0x0e, 0xa3, 0x36, 0x3b, 0x81, 0x33, 0x02, 0xbd, 
 0x2b, 0x30, 0xa4, 0xbc, 0x24, 0xb8, 0xda, 0x3b, 0xb1, 0x19, 0xc6, 0xbc, 
 0x29, 0xb5, 0x44, 0x3c, 0xca, 0x20, 0x34, 0x3d, 0x84, 0xf1, 0x64, 0x3a, 
 0x90, 0xb6, 0x72, 0x3c, 0xb2, 0x49, 0xf2, 0xbc, 0x7c, 0x6f, 0x8f, 0xbc, 
 0x22, 0x63, 0x12, 0xbc, 0x90, 0xad, 0x14, 0x3d, 0x47, 0x0d, 0x17, 0x3d, 
 0x8f, 0x7b, 0xc2, 0xbc, 0xab, 0x4a, 0x0b, 0x3c, 0xb4, 0x61, 0x9c, 0x3c, 
 0x8e, 0x10, 0x9e, 0xbc, 0x07, 0x15, 0xb9, 0x3c, 0xe7, 0x23, 0x9d, 0xbb, 
 0x48, 0x0b, 0xed, 0xbc, 0x3e, 0x8e, 0x74, 0xbc, 0xb3, 0x33, 0xf7, 0x3b, 
 0x73, 0x71, 0x95, 0x3c, 0x7b, 0xce, 0x20, 0x3d, 0xb2, 0xc4, 0x52, 0x3d, 
 0x5b, 0xdd, 0x3f, 0x3c, 0xe3, 0xae, 0x60, 0x3d, 0xf3, 0x4e, 0xf1, 0xbc, 
 0x04, 0x3a, 0x33, 0x3c, 0xa4, 0xe0, 0xa4, 0x3c, 0x96, 0x90, 0xb4, 0xbc, 
 0x1f, 0x58, 0x22, 0xbb, 0x21, 0x9f, 0x9d, 0xbc, 0x0a, 0xd7, 0xa8, 0xbc, 
 0x3b, 0x15, 0x34, 0x3d, 0x60, 0xeb, 0x0b, 0x3d, 0xb5, 0x49, 0x04, 0x3d, 
 0xe2, 0x41, 0xde, 0x3b, 0x52, 0xf8, 0x50, 0x3d, 0x65, 0x67, 0xb2, 0x3b, 
 0x21, 0x91, 0xe6, 0x3c, 0xbe, 0xc1, 0x47, 0x3d, 0xfb, 0x70, 0x21, 0x3d, 
 0x7a, 0x02, 0x3f, 0xbb, 0xc8, 0x53, 0xe1, 0xbc, 0xe3, 0xab, 0x50, 0x3d, 
 0x43, 0x8e, 0xf4, 0xbb, 0xcd, 0x90, 0xe6, 0xbc, 0x3a, 0x88, 0x03, 0x3d, 
 0xe0, 0x63, 0x63, 0x3d, 0xbf, 0x3e, 0x1c, 0x3d, 0x35, 0xce, 0x5c, 0x3d, 
 0x66, 0x04, 0x98, 0x3c, 0xe5, 0x54, 0x1f, 0xbc, 0x3e, 0x27, 0x94, 0x3c, 
 0xca, 0xae, 0x8f, 0x3c, 0x77, 0xba, 0x09, 0xb8, 0xd9, 0x87, 0xca, 0x3b, 
 0x50, 0xd7, 0xa1, 0x3c, 0x4c, 0x01, 0x99, 0xbb, 0x93, 0x4d, 0x51, 0x3d, 
 0x48, 0x60, 0xca, 0x3c, 0x14, 0x64, 0x95, 0xba, 0x71, 0xdc, 0xbb, 0x3c, 
 0xb8, 0x7b, 0xe9, 0x3b, 0x4e, 0x17, 0x93, 0xbc, 0x47, 0x53, 0xb3, 0xbc, 
 0xf7, 0x8e, 0x3d, 0x3c, 0x03, 0x62, 0x13, 0x3d, 0xa8, 0x87, 0x41, 0xbc, 
 0x08, 0xd1, 0x29, 0x3d, 0xd8, 0xba, 0xc4, 0xbc, 0x45, 0xee, 0xee, 0xbc, 
 0x6b, 0x8c, 0xec, 0x3c, 0x71, 0x7a, 0xbd, 0x3c, 0x5a, 0x3d, 0xab, 0x3c, 
 0xfd, 0x1c, 0x27, 0x3d, 0x4f, 0x4f, 0xe9, 0xbc, 0xcd, 0x08, 0x37, 0xbc, 
 0x58, 0x07, 0xc6, 0x3c, 0xc2, 0x86, 0x39, 0x3d, 0x97, 0xa2, 0xf8, 0x3c, 
 0xa5, 0x7e, 0xaa, 0xbc, 0xed, 0x72, 0x69, 0xbc, 0x30, 0x26, 0x11, 0x3c, 
 0xd5, 0x10, 0xae, 0xbc, 0xde, 0xa1, 0xb2, 0xbb, 0xe8, 0x83, 0x2d, 0x3d, 
 0x69, 0x80, 0x7c, 0xbc, 0x16, 0xc2, 0x70, 0x3b, 0x9c, 0x19, 0xf9, 0x3c, 
 0xed, 0x52, 0x52, 0x3d, 0xe2, 0xbc, 0xc3, 0xbc, 0x60, 0x36, 0xac, 0x3c, 
 0x71, 0x46, 0xb8, 0xbc, 0x45, 0xa1, 0x88, 0x3c, 0x46, 0x08, 0x06, 0xbc, 
 0x4e, 0x01, 0x30, 0x3c, 0x64, 0xd8, 0x41, 0x3d, 0xef, 0x92, 0xc6, 0x3a, 
 0xe7, 0x9f, 0x86, 0xba, 0xf6, 0x38, 0x10, 0xbd, 0xe4, 0x27, 0xe3, 0x3b, 
 0x41, 0xce, 0x09, 0xbd, 0x32, 0x42, 0x57, 0xbc, 0x07, 0x1c, 0xe2, 0xbc, 
 0x8e, 0x28, 0x31, 0x3d, 0x8c, 0x75, 0x25, 0x3c, 0x0e, 0x4b, 0xec, 0xbb, 
 0x3b, 0xc7, 0x25, 0x3c, 0x2a, 0xbf, 0x26, 0x3d, 0x84, 0xd2, 0xa3, 0x3c, 
 0x76, 0x8e, 0x5d, 0x3c, 0x9f, 0xca, 0x47, 0xbc, 0xfc, 0x87, 0xe1, 0x3c, 
 0x5e, 0x3f, 0xc8, 0x3b, 0x0b, 0xdc, 0xe3, 0xbc, 0x1b, 0x41, 0x9a, 0xbc, 
 0xe1, 0x43, 0x2f, 0x3c, 0x8c, 0x82, 0x01, 0x3c, 0xf2, 0xc8, 0x06, 0xbd, 
 0x8f, 0x64, 0xb2, 0xbc, 0x97, 0x21, 0xc4, 0xbc, 0x92, 0x08, 0x1c, 0xbc, 
 0x1a, 0x79, 0x7e, 0x3c, 0x87, 0xea, 0x28, 0x3d, 0x34, 0xcf, 0x26, 0x3d, 
 0xe5, 0xd8, 0xc6, 0x3c, 0xd5, 0xa7, 0x02, 0xbd, 0xb5, 0x44, 0x9d, 0x3c, 
 0x45, 0x57, 0x5b, 0xbc, 0xde, 0x95, 0xc3, 0xbc, 0xa9, 0x8f, 0x19, 0x3d, 
 0xa9, 0x56, 0x81, 0x3c, 0x79, 0x61, 0x7b, 0x3c, 0x7d, 0x54, 0x1a, 0xbd, 
 0xfe, 0x65, 0x1c, 0x3a, 0xa5, 0xdd, 0x56, 0xbc, 0xc3, 0x50, 0x66, 0x3c, 
 0x88, 0x3b, 0xa8, 0xbc, 0xc8, 0x46, 0xc2, 0xbc, 0x7d, 0xac, 0xe2, 0xba, 
 0xc2, 0x4d, 0x21, 0x3d, 0xf8, 0xb6, 0xa9, 0x3c, 0x54, 0x9f, 0x0b, 0x3d, 
 0xf1, 0x46, 0x0a, 0x39, 0xe5, 0x67, 0x09, 0x3c, 0xf6, 0x22, 0xb7, 0xbc, 
 0x81, 0xce, 0x0c, 0xbd, 0x68, 0x19, 0x04, 0x3d, 0x10, 0xac, 0xd0, 0xbb, 
 0xa3, 0xf5, 0xda, 0xbc, 0xa1, 0x40, 0x02, 0xbd, 0x98, 0xb6, 0x46, 0x3c, 
 0xdc, 0xe6, 0xe3, 0x3c, 0x03, 0x25, 0x14, 0xbd, 0x21, 0x92, 0xe7, 0xba, 
 0x1a, 0xad, 0x36, 0x3b, 0x77, 0xee, 0xa9, 0xbc, 0x9d, 0xb1, 0x1f, 0xbd, 
 0x47, 0x6c, 0xab, 0xbc, 0x58, 0x6d, 0xec, 0xbc, 0xe9, 0xab, 0x25, 0x3d, 
 0x65, 0xa8, 0xb5, 0xbc, 0x80, 0xea, 0xbe, 0x3c, 0x88, 0x9e, 0xe2, 0x3b, 
 0xcb, 0xc5, 0x83, 0x3c, 0x7c, 0xac, 0x30, 0x3b, 0x2d, 0xa1, 0xed, 0x3b, 
 0x6b, 0x3e, 0x21, 0x3d, 0x98, 0xd7, 0xa7, 0x3b, 0xa0, 0x97, 0x9a, 0xba, 
 0x1f, 0x6c, 0x19, 0x3c, 0xa5, 0xd0, 0x33, 0xbd, 0xa4, 0xba, 0x9b, 0xbc, 
 0x6d, 0x17, 0x87, 0xbc, 0xa5, 0xb6, 0x88, 0xbc, 0xd4, 0x8e, 0x88, 0xbc, 
 0x74, 0xea, 0xa7, 0x3c, 0x3c, 0x54, 0x9e, 0xbc, 0xc9, 0x7d, 0x0f, 0x3d, 
 0xc9, 0xa7, 0x5e, 0xbc, 0x8d, 0xe1, 0x02, 0x3d, 0x43, 0x59, 0x42, 0x3c, 
 0x7f, 0x8d, 0x86, 0x3c, 0xa7, 0x96, 0x97, 0xbc, 0x72, 0x06, 0x03, 0x3c, 
 0x32, 0x7c, 0x02, 0x3d, 0x38, 0x9b, 0x1e, 0xbb, 0xf1, 0x87, 0xda, 0x3c, 
 0x32, 0x9d, 0x24, 0x3d, 0x28, 0x62, 0x1e, 0xbd, 0x76, 0x00, 0x17, 0xbc, 
 0x93, 0x3b, 0x35, 0x3b, 0x27, 0x0d, 0x28, 0xbc, 0x09, 0x28, 0xaf, 0xbc, 
 0xe2, 0x8d, 0x48, 0x3b, 0x57, 0x7c, 0x6a, 0x3b, 0x81, 0xfb, 0xa8, 0x3c, 
 0x5b, 0x5c, 0x93, 0x3c, 0x9f, 0x7a, 0xd1, 0xbc, 0x02, 0xc0, 0xc7, 0x3c, 
 0xed, 0xee, 0x87, 0xbc, 0xf9, 0xf7, 0xf5, 0xbc, 0xac, 0x25, 0x3e, 0x3b, 
 0x9c, 0x7a, 0x04, 0xbd, 0x8b, 0x85, 0xcd, 0xbc, 0xaa, 0xcc, 0x4e, 0xbb, 
 0x95, 0x3c, 0x12, 0x3d, 0x66, 0x48, 0xb1, 0xbc, 0xc0, 0x88, 0x92, 0x3c, 
 0x72, 0x07, 0xe8, 0xbc, 0x1e, 0x59, 0x0d, 0x3b, 0x81, 0x4b, 0x29, 0xbd, 
 0xa2, 0xf2, 0xe7, 0x3c, 0x5f, 0x91, 0x15, 0xbd, 0x6f, 0x2d, 0x0c, 0xbd, 
 0xa2, 0x45, 0xcb, 0x3c, 0xa7, 0xcd, 0x3a, 0xbd, 0xc2, 0x85, 0x8d, 0x3c, 
 0x82, 0xca, 0x88, 0x3c, 0x27, 0x17, 0x0f, 0xbd, 0x94, 0x79, 0xf2, 0x3c, 
 0x61, 0xe8, 0x4d, 0xbc, 0x54, 0x2f, 0x0f, 0xbd, 0x0a, 0xfe, 0x04, 0x3c, 
 0xb0, 0x53, 0x11, 0xbc, 0x9b, 0x0a, 0x10, 0xbd, 0xac, 0x37, 0xe4, 0x3c, 
 0x17, 0x7e, 0x09, 0x3d, 0x43, 0xdf, 0x00, 0xbd, 0x61, 0xfd, 0xc5, 0x3c, 
 0xfe, 0x00, 0xa7, 0xbc, 0xa1, 0xce, 0x1c, 0xbd, 0x55, 0xfb, 0x27, 0xbc, 
 0x80, 0x8d, 0x36, 0x3c, 0x6c, 0x8d, 0x85, 0xbc, 0x69, 0x00, 0xa8, 0xbc, 
 0x81, 0x2a, 0x04, 0x3d, 0x9c, 0x91, 0xa8, 0xbc, 0xae, 0xf8, 0x29, 0xba, 
 0x2d, 0xab, 0xa2, 0x3c, 0x01, 0xc0, 0x3a, 0xbc, 0x04, 0x76, 0x88, 0xbb, 
 0x10, 0x2d, 0x48, 0x3d, 0x29, 0x26, 0x45, 0x3d, 0x6e, 0xe7, 0x4f, 0x3d, 
 0x6f, 0x0a, 0x61, 0x3d, 0xe2, 0x3a, 0xad, 0x3c, 0x6d, 0xd1, 0xa9, 0xbc, 
 0xb6, 0x61, 0x1d, 0xbc, 0x7d, 0x69, 0x03, 0xbc, 0x60, 0x1e, 0x0a, 0x3c, 
 0x31, 0x7a, 0x4f, 0x3d, 0x9c, 0xb0, 0x82, 0x3b, 0x5d, 0xbb, 0xa9, 0x3c, 
 0x6a, 0x41, 0x19, 0x3d, 0x6b, 0x2e, 0x66, 0x3d, 0x6d, 0x10, 0x28, 0x3d, 
 0x3c, 0x38, 0xa6, 0xbb, 0x71, 0x32, 0x84, 0xb9, 0x42, 0x5a, 0xc9, 0xbc, 
 0x38, 0x6d, 0x58, 0x3d, 0x6c, 0x42, 0xc9, 0xb9, 0x24, 0x2f, 0x12, 0x3c, 
 0xf5, 0x30, 0x1c, 0xbb, 0x39, 0x20, 0xb1, 0xbc, 0x15, 0x1d, 0xbe, 0x3c, 
 0xf1, 0x00, 0xea, 0x3c, 0x0d, 0xd1, 0x41, 0xbb, 0xe0, 0xe7, 0x75, 0x3c, 
 0xca, 0xb0, 0x52, 0xbc, 0x46, 0x87, 0xf1, 0xbc, 0xc4, 0x8b, 0x87, 0xbc, 
 0x30, 0x28, 0x2e, 0x3c, 0x4a, 0x8c, 0x0e, 0xbd, 0xe6, 0x23, 0x23, 0x3c, 
 0x06, 0x69, 0x3d, 0x3a, 0x78, 0x8d, 0x4f, 0x3d, 0x2d, 0xee, 0x81, 0xbc, 
 0xce, 0x28, 0x3f, 0xbb, 0x23, 0x19, 0xe1, 0xbc, 0x30, 0xdc, 0x43, 0x3d, 
 0x91, 0xa9, 0xa3, 0x3c, 0xe7, 0xa0, 0x79, 0x3d, 0x5d, 0xad, 0x3c, 0xbc, 
 0x54, 0x61, 0x95, 0x3c, 0xda, 0xca, 0xff, 0x3c, 0x44, 0xbe, 0x2f, 0x3d, 
 0x51, 0x0a, 0xb5, 0x3b, 0xdc, 0xfe, 0xa1, 0xbb, 0x05, 0xd7, 0x4c, 0x3d, 
 0x8d, 0xd9, 0x61, 0x3d, 0x0d, 0x28, 0x50, 0xbb, 0x7f, 0x4a, 0xb3, 0xbc, 
 0x0a, 0xbf, 0x51, 0x3d, 0xa0, 0x19, 0xe3, 0x3b, 0x81, 0x76, 0x02, 0x3c, 
 0xec, 0xb8, 0xc1, 0xbc, 0xf2, 0x2f, 0xb7, 0x3c, 0x18, 0x47, 0x15, 0x3d, 
 0x0c, 0x98, 0xd6, 0x3c, 0xca, 0xf9, 0x25, 0x3d, 0x5b, 0xb1, 0x84, 0x3c, 
 0x5a, 0x72, 0xc4, 0xbb, 0xb6, 0x2e, 0xa5, 0xbb, 0xd2, 0xc2, 0x33, 0x3d, 
 0x59, 0x74, 0x2f, 0xbd, 0x04, 0xf9, 0x35, 0xbc, 0x02, 0x10, 0x8b, 0xbc, 
 0xb6, 0xdd, 0x37, 0x3b, 0x5c, 0xe0, 0x17, 0xbd, 0x5d, 0x6b, 0x04, 0xbc, 
 0xdc, 0xbe, 0xcf, 0x3c, 0x71, 0x5c, 0xe5, 0x3c, 0x52, 0x25, 0x07, 0x3c, 
 0x15, 0xb1, 0xc2, 0xba, 0xa6, 0xc7, 0x89, 0x3c, 0x85, 0xc7, 0xda, 0xbc, 
 0x6a, 0x32, 0xe7, 0x3b, 0xfa, 0xe2, 0x0b, 0x3c, 0xc1, 0x41, 0x93, 0x3b, 
 0x11, 0x7f, 0x32, 0x3b, 0x1e, 0x25, 0x04, 0x3d, 0x7c, 0x1c, 0x62, 0xbc, 
 0xa4, 0xcf, 0x28, 0x3d, 0xb3, 0x61, 0x58, 0xbc, 0xad, 0x14, 0x3a, 0x3d, 
 0x42, 0x5a, 0xbb, 0x3c, 0x09, 0x86, 0xc9, 0x3b, 0x7c, 0xed, 0x8b, 0xbb, 
 0x06, 0x36, 0x04, 0xbc, 0x12, 0xc3, 0x73, 0xbc, 0xb7, 0xeb, 0x39, 0x3d, 
 0xd9, 0x0e, 0x82, 0x3c, 0x65, 0x26, 0xc2, 0xba, 0xee, 0xc7, 0x41, 0xbc, 
 0xc6, 0xe0, 0xb0, 0x3a, 0xf2, 0xbb, 0x73, 0x3c, 0x5a, 0xa3, 0x9f, 0x3c, 
 0x7c, 0x7f, 0x65, 0xbb, 0x45, 0xbb, 0xb0, 0xbb, 0x98, 0x82, 0x60, 0x3c, 
 0xa7, 0x4e, 0x2a, 0x3d, 0xe0, 0xcc, 0x18, 0x3d, 0x23, 0xd9, 0x1e, 0x3d, 
 0xc8, 0x6b, 0x48, 0x3b, 0xc1, 0xe5, 0xb9, 0xbb, 0xd9, 0x71, 0x0d, 0x3d, 
 0x6c, 0xd1, 0x2b, 0x3d, 0xaa, 0x41, 0xa3, 0x3c, 0x18, 0xda, 0x6e, 0x3d, 
 0xb1, 0x20, 0x43, 0x3d, 0x53, 0x90, 0xc9, 0x3c, 0xfa, 0x23, 0x4c, 0x3d, 
 0xd4, 0xa6, 0xee, 0x3c, 0xb9, 0xd7, 0x1f, 0x3d, 0xff, 0x04, 0x50, 0x3d, 
 0xd8, 0xce, 0x93, 0x3b, 0x3e, 0xe7, 0xc9, 0x3c, 0x99, 0x0a, 0xa1, 0x3c, 
 0x5d, 0x88, 0x6a, 0x3d, 0xed, 0x5f, 0x38, 0x3d, 0xe3, 0x59, 0x3e, 0x3d, 
 0x9d, 0xfa, 0x04, 0x3d, 0xd9, 0x39, 0x5b, 0x3c, 0x72, 0x39, 0xab, 0xbc, 
 0x91, 0xe9, 0x85, 0x3c, 0x4e, 0xb7, 0x2e, 0x3a, 0xae, 0x10, 0xbb, 0xbc, 
 0xf4, 0x23, 0xfd, 0x3a, 0xa7, 0xb4, 0x1f, 0x3d, 0x3e, 0x43, 0x1a, 0x3d, 
 0x07, 0xbf, 0x5f, 0xbc, 0x91, 0xf9, 0x94, 0x3b, 0x3c, 0x7a, 0xae, 0x3c, 
 0x06, 0xef, 0xce, 0xbc, 0xef, 0x15, 0x0a, 0x3d, 0x5d, 0x3a, 0x10, 0x3d, 
 0xd9, 0x5a, 0x23, 0x3d, 0x9f, 0x79, 0x33, 0xbc, 0x54, 0x01, 0xb6, 0x3c, 
 0xff, 0x2f, 0x71, 0x3c, 0x01, 0xbf, 0x23, 0x3c, 0x2c, 0x5a, 0x74, 0xbc, 
 0x9b, 0x5a, 0x8f, 0x3c, 0x06, 0x0c, 0xc9, 0xbc, 0xfa, 0x00, 0x3e, 0x3d, 
 0xf2, 0x90, 0x4c, 0x3d, 0x05, 0x3f, 0x47, 0x3d, 0xf9, 0xc9, 0xcd, 0x3c, 
 0x18, 0xd0, 0xba, 0x3c, 0x82, 0x4f, 0x3a, 0x3c, 0xaf, 0xb5, 0x59, 0x3d, 
 0xde, 0x0b, 0x21, 0x3b, 0xe4, 0x0c, 0x47, 0x3a, 0xbc, 0x3a, 0x48, 0x3d, 
 0x4a, 0x18, 0x52, 0x3d, 0x65, 0xb3, 0x2f, 0x3d, 0xf6, 0x32, 0x11, 0x3d, 
 0x84, 0xc2, 0xcc, 0xbb, 0xd4, 0x3a, 0x54, 0x3d, 0x38, 0x53, 0x41, 0x3d, 
 0x4e, 0x49, 0xd3, 0xbc, 0xd4, 0x36, 0x61, 0x3d, 0x56, 0x0d, 0xc3, 0x3c, 
 0x25, 0x45, 0xab, 0x3a, 0xb9, 0x4a, 0xdb, 0x3c, 0xc0, 0x78, 0x1e, 0x3d, 
 0xb8, 0xcc, 0x31, 0x3d, 0x82, 0xe1, 0x50, 0x3d, 0x69, 0x1b, 0x6c, 0x3d, 
 0xaa, 0x4e, 0x65, 0x3c, 0x6a, 0x77, 0xb4, 0x3c, 0xe3, 0x8c, 0xcb, 0x3c, 
 0x91, 0x0c, 0xd2, 0x3c, 0x72, 0x47, 0x5d, 0xbc, 0x7f, 0xcf, 0x15, 0x3d, 
 0xca, 0x46, 0xdd, 0x3b, 0x4b, 0xbf, 0x1f, 0xbc, 0xc3, 0x12, 0xa3, 0x3c, 
 0x83, 0x93, 0xbd, 0x3c, 0x73, 0xaa, 0x2a, 0xbc, 0xec, 0x52, 0x6e, 0xbb, 
 0xb9, 0xc0, 0x75, 0x3d, 0xbd, 0x89, 0x81, 0x3d, 0x43, 0x7e, 0x1c, 0x3d, 
 0xf4, 0x82, 0xf4, 0x3c, 0x15, 0x36, 0x60, 0x3c, 0x3a, 0x22, 0x7c, 0xbc, 
 0x98, 0xb4, 0x3f, 0x3d, 0xbd, 0xc9, 0x3c, 0x3d, 0x22, 0x52, 0x0e, 0x3d, 
 0xac, 0x16, 0xce, 0xbc, 0xbd, 0x03, 0x76, 0x3d, 0x11, 0x3a, 0xd9, 0x3a, 
 0xf4, 0x00, 0xbb, 0x3c, 0x6a, 0x96, 0xe8, 0xba, 0x4b, 0xc6, 0xf6, 0xbb, 
 0x54, 0x1c, 0x28, 0x3d, 0xd0, 0xbe, 0x39, 0x3d, 0x37, 0x38, 0x2b, 0x3c, 
 0x2b, 0x7b, 0xb1, 0xba, 0x8d, 0xde, 0x85, 0xbc, 0x0b, 0x15, 0x63, 0x3d, 
 0x61, 0xe7, 0x24, 0x3d, 0x26, 0xe2, 0x30, 0x3d, 0x5b, 0xc7, 0x2e, 0x3d, 
 0xc1, 0x6d, 0x0c, 0x3d, 0x14, 0x82, 0xa6, 0xbc, 0x72, 0x0d, 0x51, 0x3b, 
 0x52, 0xf5, 0x43, 0x3d, 0x12, 0x0a, 0x7a, 0x3c, 0x73, 0x4f, 0x50, 0xbc, 
 0x5c, 0x45, 0x58, 0x3c, 0xc6, 0x7c, 0x56, 0x3b, 0x7e, 0x4c, 0x95, 0x3c, 
 0x58, 0xa7, 0xd0, 0xba, 0x5b, 0x5f, 0xdc, 0x3c, 0xd4, 0x09, 0x0d, 0xbc, 
 0x39, 0xa4, 0x78, 0x3d, 0xa7, 0x4b, 0x06, 0xbc, 0x75, 0xa4, 0x0b, 0x3d, 
 0xa4, 0x8c, 0xac, 0x3c, 0x01, 0x4e, 0xb8, 0x3c, 0xd9, 0xd8, 0x72, 0x3d, 
 0xc2, 0x0a, 0xb7, 0x3b, 0x7b, 0x1c, 0xe9, 0x3c, 0xbe, 0x86, 0xab, 0x3c, 
 0xdb, 0x2e, 0xf7, 0x3c, 0xeb, 0x59, 0x5c, 0xbc, 0x0d, 0x78, 0x5f, 0x3d, 
 0x95, 0xd6, 0xe3, 0x3c, 0x80, 0xb6, 0x01, 0x3c, 0x45, 0x8d, 0x82, 0xbb, 
 0x66, 0x36, 0x06, 0x3c, 0xfe, 0xa8, 0xa7, 0xbb, 0x84, 0x82, 0x1c, 0x3d, 
 0xed, 0xb4, 0x84, 0xbc, 0x3c, 0x27, 0xe9, 0xbb, 0xd0, 0xc2, 0xd4, 0xbc, 
 0x45, 0xcb, 0x87, 0xbc, 0xd6, 0x77, 0xb8, 0x3c, 0x1b, 0x9d, 0x6f, 0x3d, 
 0x82, 0x69, 0x3b, 0x3c, 0xae, 0x81, 0xc5, 0xbc, 0xd9, 0xed, 0x21, 0x3a, 
 0x30, 0xfb, 0xb4, 0xbc, 0x52, 0x3a, 0x65, 0x3b, 0x80, 0xe5, 0xcc, 0x3b, 
 0x20, 0x9f, 0x27, 0x3d, 0x93, 0xff, 0xe4, 0x3b, 0x31, 0xa7, 0xe0, 0x3b, 
 0xfc, 0xc9, 0xa8, 0x3c, 0x69, 0xea, 0x24, 0x3c, 0xce, 0xa3, 0x28, 0x3d, 
 0x22, 0x1a, 0x60, 0x3c, 0xa2, 0x09, 0x4a, 0x3d, 0xcb, 0xeb, 0xf4, 0x3c, 
 0xab, 0x1e, 0x15, 0x3b, 0x13, 0x43, 0xe9, 0x3c, 0x43, 0x1f, 0x8c, 0x3c, 
 0x20, 0x5d, 0xfb, 0x3c, 0x07, 0xd1, 0x6c, 0xbc, 0x58, 0x31, 0xbb, 0xbb, 
 0x73, 0x03, 0x97, 0xbb, 0xe3, 0xe7, 0x6e, 0xbc, 0x8c, 0xaa, 0x09, 0x3d, 
 0x19, 0x25, 0x36, 0x3d, 0x61, 0x1b, 0xb9, 0xbc, 0x7e, 0x26, 0x1f, 0xbc, 
 0xb1, 0x50, 0xed, 0xbc, 0x39, 0xce, 0x1c, 0xbd, 0x1f, 0xef, 0x75, 0x39, 
 0x2b, 0x55, 0x8d, 0x3c, 0x36, 0x1e, 0x0b, 0xbd, 0xc8, 0xba, 0x15, 0x3d, 
 0xc4, 0xa1, 0x2e, 0x3c, 0xa4, 0x64, 0x89, 0x3c, 0x0c, 0xb3, 0xba, 0x3c, 
 0xc0, 0x5a, 0xb0, 0xba, 0xaa, 0x24, 0x66, 0xbc, 0x33, 0x80, 0xe5, 0x3b, 
 0xd3, 0xa0, 0x9f, 0x3c, 0x98, 0x66, 0x95, 0xbc, 0x50, 0x0b, 0x1e, 0xbc, 
 0xbb, 0x9a, 0x0a, 0x3d, 0xa6, 0x8b, 0x0b, 0xbc, 0xfc, 0x1c, 0xf9, 0x3b, 
 0x72, 0x00, 0xd6, 0x3c, 0xd6, 0x28, 0xea, 0xbb, 0x77, 0x09, 0xe7, 0x3c, 
 0xf3, 0xc1, 0x1c, 0x3d, 0x9c, 0x5f, 0xc5, 0x3c, 0xed, 0xe4, 0x40, 0xbc, 
 0x94, 0xaf, 0x1f, 0x3d, 0x34, 0x13, 0x1a, 0x3d, 0x08, 0x6d, 0x8f, 0xbc, 
 0xa6, 0x53, 0x05, 0xbd, 0xed, 0x2e, 0x8c, 0xbc, 0xcb, 0x7d, 0x4f, 0xbc, 
 0xcd, 0xe5, 0x13, 0x3d, 0xf0, 0xeb, 0xa6, 0x3c, 0xfe, 0xcc, 0x11, 0x3d, 
 0x7e, 0x16, 0x17, 0xbd, 0x16, 0x5b, 0x74, 0x3c, 0xa8, 0x08, 0x08, 0xbd, 
 0x57, 0x58, 0xb4, 0xbc, 0x17, 0x56, 0x28, 0xbc, 0xd4, 0xa7, 0x8c, 0x3c, 
 0x70, 0xdd, 0xc8, 0x3b, 0xb1, 0x2f, 0x5d, 0xbc, 0x74, 0xe9, 0x06, 0x3d, 
 0x4d, 0x73, 0x10, 0x3d, 0x76, 0x18, 0xd7, 0x3c, 0x15, 0xaf, 0x11, 0x3d, 
 0x50, 0xbb, 0x97, 0xbc, 0xa4, 0x8f, 0x2e, 0x3d, 0x57, 0x1f, 0xf3, 0xbc, 
 0x0a, 0xa9, 0x2e, 0x3c, 0x9f, 0x88, 0xae, 0xbb, 0xd2, 0xcd, 0xfe, 0xba, 
 0xdd, 0xdd, 0x15, 0x3c, 0x68, 0xe0, 0x32, 0x3c, 0xce, 0x54, 0x05, 0x3c, 
 0x7e, 0x71, 0x43, 0xbb, 0x8e, 0xc8, 0xd1, 0x3c, 0xaa, 0xc0, 0xe5, 0xbc, 
 0x18, 0xa7, 0xa7, 0xbc, 0xf2, 0x27, 0x2b, 0xbd, 0xed, 0xee, 0xba, 0x3b, 
 0x33, 0x78, 0x7b, 0xbc, 0xc5, 0xc2, 0xd6, 0x3c, 0x66, 0x94, 0x0d, 0xbc, 
 0x77, 0x65, 0x75, 0x3c, 0x69, 0x27, 0x93, 0x3c, 0x4b, 0x54, 0xfa, 0xbc, 
 0xd2, 0x6f, 0x21, 0x3d, 0xa6, 0x2f, 0xd1, 0xbb, 0x25, 0x26, 0xdc, 0xbc, 
 0xba, 0x7b, 0x85, 0xbc, 0x67, 0x9f, 0xdd, 0xb9, 0xe8, 0x2d, 0x8c, 0x3c, 
 0x01, 0xb5, 0xd0, 0x3b, 0xf6, 0x2b, 0x0e, 0x3d, 0x10, 0xe9, 0x21, 0xba, 
 0x06, 0xd8, 0x16, 0x3d, 0x9d, 0xf9, 0xe3, 0x3c, 0xba, 0x86, 0x27, 0x3d, 
 0xea, 0x18, 0xcb, 0x3b, 0x11, 0x26, 0x1e, 0xbd, 0x69, 0x0b, 0xb7, 0xbc, 
 0x7f, 0x57, 0x01, 0xbd, 0xfa, 0xf6, 0x7d, 0xbc, 0x28, 0x29, 0xa2, 0xbb, 
 0x5d, 0x40, 0x01, 0x3d, 0x71, 0xa8, 0x0c, 0x3c, 0x30, 0x85, 0xfb, 0xba, 
 0xf9, 0x82, 0x0b, 0xbd, 0x12, 0x49, 0xd5, 0x3c, 0xf1, 0xfd, 0xdd, 0x3c, 
 0xe5, 0xa6, 0x44, 0x3d, 0xfc, 0x83, 0x9c, 0x3c, 0x69, 0xb3, 0xf8, 0xbc, 
 0x74, 0x3b, 0xfa, 0x3c, 0xe1, 0x00, 0xa7, 0xbc, 0x29, 0x10, 0x95, 0xbb, 
 0x45, 0x62, 0x17, 0x3b, 0xed, 0x98, 0xb7, 0xbc, 0x51, 0x80, 0x98, 0xbc, 
 0x18, 0xf9, 0x34, 0xbd, 0xfc, 0x7e, 0x94, 0x3c, 0xa4, 0x26, 0x82, 0x3c, 
 0x14, 0x4b, 0x00, 0x3d, 0xcf, 0x7b, 0x59, 0x3c, 0x48, 0xe0, 0xd1, 0x3c, 
 0x0a, 0xdd, 0x46, 0xbd, 0x07, 0x73, 0xd3, 0xbb, 0x1e, 0xc5, 0x7b, 0xbb, 
 0x9f, 0xe5, 0x83, 0x3b, 0x0b, 0x40, 0x67, 0x3c, 0x32, 0x91, 0x7e, 0xbc, 
 0xb5, 0x7b, 0xa3, 0x3c, 0x64, 0x0e, 0xba, 0xbc, 0x17, 0x70, 0xb0, 0xbc, 
 0x81, 0x83, 0xa6, 0x3b, 0xcd, 0xd6, 0xea, 0x38, 0x84, 0xea, 0x3c, 0x3c, 
 0x14, 0x8e, 0x95, 0x3c, 0x57, 0x34, 0xd4, 0x3c, 0xa0, 0x1c, 0x37, 0x3d, 
 0xf4, 0x73, 0x48, 0x3a, 0x21, 0x96, 0x37, 0xbc, 0x47, 0xb0, 0x9e, 0xbc, 
 0x45, 0x15, 0xc0, 0xbc, 0x27, 0x85, 0x45, 0x3d, 0x9d, 0x6c, 0x1a, 0xbc, 
 0xeb, 0x94, 0x1c, 0xbb, 0x7c, 0x4e, 0x9c, 0xbb, 0xf4, 0xa6, 0x9f, 0x3c, 
 0x21, 0xc4, 0x40, 0x3d, 0x58, 0x9a, 0x5d, 0x3c, 0x35, 0xca, 0x43, 0xbc, 
 0x39, 0xed, 0x64, 0xbc, 0x5e, 0xdc, 0xb8, 0x3c, 0x5b, 0x92, 0x9b, 0xbc, 
 0x19, 0x9b, 0x11, 0x3c, 0x14, 0x87, 0xdb, 0xbc, 0x0e, 0xf7, 0x15, 0xbc, 
 0xb5, 0xa2, 0x0b, 0x3a, 0x60, 0x3a, 0xc2, 0x3c, 0x08, 0xcd, 0x77, 0xbc, 
 0xd1, 0x01, 0x31, 0x3d, 0x04, 0x9f, 0xbf, 0xbc, 0xe9, 0x0a, 0x83, 0xbc, 
 0xa8, 0x5f, 0xcd, 0x3b, 0x38, 0xb5, 0x0d, 0xb9, 0xea, 0xd5, 0xa5, 0xbc, 
 0x59, 0x20, 0x15, 0x3d, 0xd1, 0x51, 0x9d, 0x3b, 0xd3, 0x4d, 0x3a, 0xbc, 
 0x87, 0xc2, 0xd3, 0x3c, 0x10, 0x99, 0x6f, 0x3c, 0x97, 0x5a, 0x06, 0xbb, 
 0xe3, 0xe0, 0xa4, 0x3b, 0x6a, 0xf6, 0x85, 0xbc, 0x69, 0xca, 0x88, 0xbc, 
 0x44, 0x53, 0x89, 0x3b, 0x4b, 0x66, 0x46, 0x3d, 0x78, 0xee, 0x34, 0x3d, 
 0x45, 0x31, 0xbb, 0x3c, 0x19, 0x94, 0xee, 0xbb, 0x57, 0xe6, 0x26, 0x3c, 
 0x54, 0xe5, 0xec, 0x3c, 0x99, 0xb5, 0x3b, 0xbc, 0x9b, 0x3c, 0x62, 0x3d, 
 0xd2, 0xc3, 0x0d, 0x3c, 0xef, 0x4b, 0x7b, 0x3c, 0x24, 0x02, 0xb4, 0xbc, 
 0xcf, 0x64, 0x95, 0x3c, 0x83, 0xe7, 0x72, 0xbc, 0x3c, 0x2b, 0xf3, 0x3c, 
 0x28, 0x74, 0x09, 0xbc, 0xb4, 0xce, 0x41, 0x3d, 0xc4, 0x57, 0x64, 0xbc, 
 0x0a, 0x4c, 0xd1, 0x3c, 0x16, 0xad, 0xd1, 0x3c, 0x73, 0x54, 0xe7, 0xba, 
 0x41, 0xe0, 0x6a, 0x3d, 0xb9, 0x19, 0x13, 0x3c, 0x2d, 0x76, 0x8b, 0xbc, 
 0x61, 0xef, 0x5a, 0x3d, 0xd9, 0x23, 0x9c, 0x3b, 0x24, 0x1d, 0xaf, 0x3c, 
 0x39, 0xd2, 0xcb, 0x3c, 0x00, 0xf1, 0x1f, 0xbc, 0xf3, 0x96, 0x30, 0xbc, 
 0x10, 0x10, 0x20, 0x3d, 0xe0, 0x53, 0x45, 0x3d, 0x0e, 0x07, 0x61, 0xbc, 
 0x89, 0x2a, 0x40, 0xbc, 0x07, 0x72, 0x0c, 0xbd, 0x41, 0x00, 0x92, 0x3b, 
 0x7e, 0x55, 0xb4, 0xbc, 0xae, 0x2b, 0xd2, 0x3b, 0x60, 0xcd, 0x1f, 0xbb, 
 0x1e, 0xd9, 0x8b, 0x3b, 0x9c, 0xf6, 0x48, 0xbc, 0xe6, 0xd7, 0x77, 0xbb, 
 0xdd, 0x96, 0x47, 0x3d, 0x04, 0xf4, 0x27, 0x3d, 0x32, 0x1e, 0x97, 0xbc, 
 0xd8, 0x7c, 0x4f, 0xbb, 0x6b, 0x3e, 0xab, 0xbb, 0x43, 0x9a, 0x80, 0x3b, 
 0xf1, 0x75, 0x64, 0x3c, 0xed, 0x0d, 0xd4, 0x3b, 0xc6, 0xe1, 0x0c, 0x3d, 
 0xbb, 0xe0, 0xfa, 0x3c, 0x28, 0x04, 0x19, 0x3d, 0x38, 0xb3, 0x7c, 0x39, 
 0x32, 0x2f, 0x5b, 0x3d, 0x99, 0x3c, 0x63, 0x3d, 0x7e, 0xd5, 0xa0, 0x3b, 
 0x02, 0xd1, 0x10, 0x3c, 0xd6, 0xf5, 0x5e, 0x3c, 0xb4, 0xa8, 0x72, 0x3c, 
 0x3e, 0x70, 0x69, 0xbb, 0x58, 0x9f, 0x49, 0x3c, 0x55, 0x4a, 0x49, 0x3a, 
 0x5e, 0x3f, 0xad, 0x3c, 0x9d, 0xf9, 0x6e, 0x3b, 0x9c, 0xe3, 0xe4, 0x3a, 
 0xc7, 0xde, 0xdb, 0x3c, 0xc7, 0x89, 0x6b, 0x3d, 0x9d, 0xf4, 0xb3, 0xbb, 
 0xdd, 0xc8, 0xe0, 0x3c, 0xb9, 0x48, 0x5d, 0x3d, 0x58, 0x54, 0x7a, 0x3d, 
 0xe5, 0x0a, 0x5e, 0x3d, 0xec, 0xb0, 0xec, 0x3c, 0xfe, 0xd4, 0x4a, 0x3c, 
 0x73, 0xe2, 0x1b, 0x3d, 0x17, 0x8d, 0x16, 0x3d, 0x21, 0xe0, 0x95, 0xbc, 
 0xa7, 0xae, 0x2e, 0x3d, 0x0c, 0x31, 0x28, 0xbc, 0x21, 0xbc, 0x69, 0x3d, 
 0x84, 0xc0, 0xb9, 0x3c, 0xeb, 0x2b, 0x05, 0x3d, 0xbb, 0x76, 0xf5, 0xb9, 
 0x59, 0x20, 0xa6, 0xbc, 0x8c, 0x5f, 0xf3, 0x3a, 0x15, 0x63, 0x8f, 0x3c, 
 0x22, 0x9b, 0x3d, 0xbc, 0x98, 0x08, 0xf8, 0x3c, 0xd3, 0x0c, 0x51, 0x3c, 
 0x31, 0x90, 0x81, 0x3c, 0x90, 0x75, 0x06, 0x3d, 0x28, 0x55, 0x5e, 0x3d, 
 0xf1, 0xd1, 0x46, 0x3d, 0xd6, 0x1c, 0xa3, 0xbb, 0x03, 0x4c, 0x1c, 0x3d, 
 0x84, 0x8e, 0xf5, 0xbc, 0x0e, 0x36, 0x57, 0x3d, 0x52, 0xc2, 0xee, 0x3c, 
 0x02, 0x46, 0xd2, 0x3c, 0xcf, 0x7a, 0x82, 0x3c, 0x6b, 0x7a, 0x63, 0x3b, 
 0x88, 0xc0, 0x62, 0x3c, 0x18, 0x7b, 0x01, 0x3a, 0x77, 0x4a, 0x59, 0x3d, 
 0x34, 0x37, 0xe9, 0x3c, 0xea, 0x45, 0x15, 0x3d, 0x0f, 0x96, 0x62, 0xbb, 
 0xdd, 0xa4, 0xe6, 0x3c, 0x4d, 0x80, 0x49, 0x3c, 0x1c, 0xd9, 0x0a, 0x3d, 
 0x89, 0x48, 0x8f, 0xbc, 0x9d, 0x6d, 0xd1, 0xbb, 0x7d, 0x04, 0xe3, 0x3b, 
 0x90, 0x24, 0x66, 0xbc, 0xd1, 0xc8, 0x61, 0xbc, 0x9c, 0x6d, 0x55, 0xbc, 
 0x62, 0xe8, 0xb2, 0x3c, 0x4b, 0xd3, 0xa1, 0x3b, 0x2c, 0xc3, 0x81, 0xbb, 
 0x57, 0xad, 0x5e, 0xbc, 0x35, 0x7b, 0xe2, 0xbb, 0x60, 0x16, 0x4c, 0x3d, 
 0xfc, 0x9f, 0x4f, 0x3d, 0x5a, 0x96, 0x1a, 0x3d, 0xe0, 0x4d, 0xc7, 0x3b, 
 0x75, 0x7e, 0xd1, 0x3c, 0x0d, 0x71, 0x9a, 0x3c, 0xc4, 0x73, 0x2e, 0x3d, 
 0xa5, 0x89, 0x7b, 0xbc, 0x1a, 0x29, 0xc3, 0xbb, 0xb0, 0x22, 0x52, 0xbc, 
 0x13, 0x06, 0x4e, 0x3d, 0xe9, 0x97, 0x34, 0x3c, 0xd6, 0x9b, 0x49, 0xbc, 
 0xb7, 0xcd, 0x58, 0x3d, 0x00, 0x6d, 0x2e, 0x3c, 0x19, 0x31, 0xdc, 0x3c, 
 0x69, 0x74, 0x26, 0x3c, 0x9a, 0xcf, 0x2c, 0xbc, 0x1f, 0x5b, 0xdc, 0x3c, 
 0x59, 0x0c, 0x0e, 0x3d, 0xa8, 0x95, 0x9b, 0xba, 0x40, 0x75, 0xe4, 0x3c, 
 0x5c, 0xca, 0xa0, 0xbc, 0xdb, 0x72, 0x0f, 0x3d, 0x3a, 0x79, 0xcc, 0x3b, 
 0x7a, 0x0c, 0x9e, 0xbc, 0xbd, 0xf2, 0x96, 0xbc, 0xfa, 0x77, 0x48, 0x3d, 
 0xc9, 0x7c, 0xfe, 0x3c, 0x95, 0x61, 0x0c, 0x3d, 0x9f, 0x30, 0x91, 0xbc, 
 0x4e, 0x19, 0x06, 0x3d, 0x37, 0xea, 0x35, 0x3b, 0x2c, 0x5d, 0x66, 0xbc, 
 0x94, 0x8d, 0x37, 0x3d, 0x6c, 0x63, 0x82, 0x3c, 0x91, 0x02, 0xc8, 0x3c, 
 0x6c, 0xd3, 0x19, 0x3c, 0xca, 0xbc, 0xe1, 0x3c, 0x82, 0x61, 0x25, 0x3c, 
 0x68, 0x76, 0x90, 0x3c, 0xeb, 0x14, 0x71, 0x3d, 0xc5, 0x66, 0x3c, 0x3d, 
 0x37, 0xfc, 0x4f, 0x3d, 0x70, 0x3b, 0x8a, 0x3c, 0x1a, 0x73, 0x84, 0x3c, 
 0x37, 0x52, 0x0d, 0x3d, 0x0b, 0x73, 0x5d, 0x3d, 0x62, 0x75, 0x11, 0xbb, 
 0x5f, 0xa1, 0x0f, 0x3b, 0x4a, 0x6f, 0xca, 0x3b, 0x17, 0x49, 0xb9, 0x3c, 
 0x14, 0x63, 0x4f, 0x3d, 0x6f, 0xe8, 0x27, 0x3b, 0xc5, 0x27, 0xa4, 0x3c, 
 0x4c, 0x64, 0x33, 0xbc, 0x74, 0x26, 0xe1, 0x3c, 0x37, 0xd5, 0x03, 0x3d, 
 0xc2, 0x44, 0xdd, 0x3c, 0x4c, 0xc4, 0x42, 0x3d, 0x83, 0xbc, 0x2e, 0x3c, 
 0xdc, 0xdc, 0x9b, 0x3c, 0x8b, 0x31, 0xa5, 0x3c, 0x9a, 0x3e, 0x0e, 0x3d, 
 0x08, 0x25, 0x23, 0x3d, 0x9a, 0x31, 0x2a, 0x3d, 0xcb, 0x90, 0x65, 0x3d, 
 0xa3, 0x21, 0xd7, 0x3c, 0xe6, 0x61, 0xc6, 0xbb, 0x79, 0x68, 0xa1, 0x3c, 
 0xbf, 0x03, 0x2b, 0x3d, 0xc2, 0x94, 0xbf, 0x3c, 0xa6, 0x7a, 0x18, 0x3d, 
 0x3f, 0xc4, 0x9d, 0x3c, 0xb8, 0x8a, 0x5e, 0x3c, 0xaa, 0x2d, 0xa0, 0xbc, 
 0x44, 0x5c, 0xf3, 0x3c, 0x99, 0x3b, 0x51, 0x3d, 0x14, 0x50, 0x1c, 0x3c, 
 0xa8, 0xfe, 0xef, 0xb8, 0x41, 0x62, 0x5f, 0x3d, 0x51, 0x5b, 0x8b, 0xbc, 
 0x23, 0xdc, 0x57, 0x3d, 0xb6, 0xe4, 0x8b, 0x3c, 0x48, 0x90, 0xc4, 0xbc, 
 0x06, 0x6b, 0x19, 0x3d, 0xb8, 0xfc, 0x63, 0x3d, 0x2a, 0x6e, 0x9e, 0xbc, 
 0x76, 0x68, 0x30, 0xbc, 0x78, 0x57, 0x56, 0x3d, 0x36, 0xab, 0x4d, 0x3c, 
 0x02, 0x7f, 0x30, 0xbc, 0x19, 0xe8, 0x54, 0x3d, 0xb7, 0xc6, 0x92, 0xbc, 
 0xcc, 0xe1, 0xa9, 0x3c, 0xf1, 0x40, 0x6e, 0xbb, 0x03, 0x59, 0x4d, 0xbc, 
 0x39, 0xf1, 0x27, 0xbc, 0xc8, 0x4b, 0xa4, 0x3a, 0x62, 0x42, 0xf3, 0x3b, 
 0x66, 0xdd, 0xc0, 0xbb, 0x75, 0x2b, 0x63, 0xbb, 0xf5, 0x23, 0xc9, 0x3c, 
 0x95, 0x27, 0x23, 0x3d, 0x7c, 0xb7, 0x7f, 0x3c, 0x72, 0xfc, 0xeb, 0x3c, 
 0x4c, 0x1e, 0xbe, 0xbc, 0xf2, 0xca, 0x8b, 0x3c, 0x5d, 0x70, 0x7a, 0xbc, 
 0xbe, 0x74, 0xba, 0xbc, 0x01, 0x79, 0x5b, 0xbc, 0x9e, 0x42, 0x74, 0x3c, 
 0xa0, 0xb5, 0xd2, 0x3b, 0xee, 0x9f, 0xab, 0x3b, 0xf4, 0x01, 0x7a, 0x3b, 
 0xb7, 0xfa, 0xba, 0x3a, 0x32, 0x8e, 0x0d, 0x3d, 0x34, 0x83, 0x0c, 0x3d, 
 0xbb, 0xe9, 0x0f, 0x3a, 0x69, 0x36, 0xde, 0xbc, 0x8f, 0xb6, 0x98, 0x3c, 
 0xc6, 0x3c, 0x22, 0x3d, 0x47, 0x96, 0xae, 0x3c, 0x6a, 0x46, 0xa4, 0x3c, 
 0xc8, 0xc4, 0x62, 0xbc, 0x64, 0xa2, 0x07, 0x3a, 0xca, 0x87, 0xef, 0x3c, 
 0xf2, 0x88, 0xe1, 0xbb, 0xe4, 0x46, 0x78, 0xbc, 0xb4, 0xe6, 0xec, 0x3c, 
 0xb8, 0x67, 0x9d, 0x3c, 0x4e, 0xda, 0xc4, 0x3c, 0x8b, 0x6c, 0x06, 0xbd, 
 0x12, 0xe2, 0xb1, 0xbc, 0x01, 0x2e, 0x03, 0xbd, 0x5b, 0x09, 0x2d, 0x3c, 
 0xf1, 0xdc, 0x19, 0xbd, 0x41, 0x85, 0xf8, 0xbc, 0x9d, 0x86, 0x0a, 0x3d, 
 0x37, 0x3d, 0x32, 0x3d, 0x30, 0xc3, 0x3b, 0x3b, 0x0f, 0x48, 0xeb, 0xbc, 
 0xd6, 0xab, 0x0b, 0xbd, 0xf1, 0xbc, 0x04, 0xbd, 0x61, 0x0e, 0x71, 0xbc, 
 0xb6, 0xf5, 0x8b, 0xbc, 0x0b, 0x5d, 0xe8, 0x3c, 0x3c, 0xce, 0x85, 0x3b, 
 0x14, 0x0d, 0x04, 0xbd, 0x12, 0x13, 0xca, 0x3c, 0x00, 0x00, 0x06, 0x00, 
 0x08, 0x00, 0x04, 0x00, 0x06, 0x00, 0x00, 0x00, 0x04, 0x00, 0x00, 0x00, 
 0x08, 0x00, 0x00, 0x00, 0xff, 0xff, 0xff, 0xff, 0xe8, 0x01, 0x00, 0x00, 
 0x8c, 0xfb, 0xff, 0xff, 0x90, 0xfb, 0xff, 0xff, 0x0f, 0x00, 0x00, 0x00, 
 0x4d, 0x4c, 0x49, 0x52, 0x20, 0x43, 0x6f, 0x6e, 0x76, 0x65, 0x72, 0x74, 
 0x65, 0x64, 0x2e, 0x00, 0x01, 0x00, 0x00, 0x00, 0x14, 0x00, 0x00, 0x00, 
 0x00, 0x00, 0x0e, 0x00, 0x18, 0x00, 0x14, 0x00, 0x10, 0x00, 0x0c, 0x00, 
 0x08, 0x00, 0x04, 0x00, 0x0e, 0x00, 0x00, 0x00, 0x14, 0x00, 0x00, 0x00, 
 0x1c, 0x00, 0x00, 0x00, 0x14, 0x01, 0x00, 0x00, 0x18, 0x01, 0x00, 0x00, 
 0x1c, 0x01, 0x00, 0x00, 0x04, 0x00, 0x00, 0x00, 0x6d, 0x61, 0x69, 0x6e, 
 0x00, 0x00, 0x00, 0x00, 0x03, 0x00, 0x00, 0x00, 0xac, 0x00, 0x00, 0x00, 
 0x48, 0x00, 0x00, 0x00, 0x10, 0x00, 0x00, 0x00, 0x00, 0x00, 0x0a, 0x00, 
 0x10, 0x00, 0x0c, 0x00, 0x08, 0x00, 0x04, 0x00, 0x0a, 0x00, 0x00, 0x00, 
 0x0c, 0x00, 0x00, 0x00, 0x10, 0x00, 0x00, 0x00, 0x02, 0x00, 0x00, 0x00, 
 0x01, 0x00, 0x00, 0x00, 0x06, 0x00, 0x00, 0x00, 0x02, 0x00, 0x00, 0x00, 
 0x05, 0x00, 0x00, 0x00, 0x01, 0x00, 0x00, 0x00, 0x00, 0x00, 0x0e, 0x00, 
 0x1a, 0x00, 0x14, 0x00, 0x10, 0x00, 0x0c, 0x00, 0x0b, 0x00, 0x04, 0x00, 
 0x0e, 0x00, 0x00, 0x00, 0x24, 0x00, 0x00, 0x00, 0x00, 0x00, 0x00, 0x05, 
 0x34, 0x00, 0x00, 0x00, 0x38, 0x00, 0x00, 0x00, 0x01, 0x00, 0x00, 0x00, 
 0x00, 0x00, 0x0e, 0x00, 0x18, 0x00, 0x17, 0x00, 0x10, 0x00, 0x0c, 0x00, 
 0x08, 0x00, 0x04, 0x00, 0x0e, 0x00, 0x00, 0x00, 0x01, 0x00, 0x00, 0x00, 
 0x02, 0x00, 0x00, 0x00, 0x01, 0x00, 0x00, 0x00, 0x02, 0x00, 0x00, 0x00, 
 0x00, 0x00, 0x00, 0x01, 0x01, 0x00, 0x00, 0x00, 0x05, 0x00, 0x00, 0x00, 
 0x01, 0x00, 0x00, 0x00, 0x04, 0x00, 0x00, 0x00, 0x00, 0x00, 0x0e, 0x00, 
 0x14, 0x00, 0x00, 0x00, 0x10, 0x00, 0x0c, 0x00, 0x0b, 0x00, 0x04, 0x00, 
 0x0e, 0x00, 0x00, 0x00, 0x1c, 0x00, 0x00, 0x00, 0x00, 0x00, 0x00, 0x01, 
 0x28, 0x00, 0x00, 0x00, 0x2c, 0x00, 0x00, 0x00, 0x0c, 0x00, 0x14, 0x00, 
 0x13, 0x00, 0x0c, 0x00, 0x08, 0x00, 0x07, 0x00, 0x0c, 0x00, 0x00, 0x00, 
 0x00, 0x00, 0x00, 0x01, 0x01, 0x00, 0x00, 0x00, 0x01, 0x00, 0x00, 0x00, 
 0x00, 0x00, 0x00, 0x01, 0x01, 0x00, 0x00, 0x00, 0x04, 0x00, 0x00, 0x00, 
 0x03, 0x00, 0x00, 0x00, 0x00, 0x00, 0x00, 0x00, 0x02, 0x00, 0x00, 0x00, 
 0x03, 0x00, 0x00, 0x00, 0x01, 0x00, 0x00, 0x00, 0x06, 0x00, 0x00, 0x00, 
 0x01, 0x00, 0x00, 0x00, 0x00, 0x00, 0x00, 0x00, 0x07, 0x00, 0x00, 0x00, 
 0xdc, 0x02, 0x00, 0x00, 0x84, 0x02, 0x00, 0x00, 0x20, 0x02, 0x00, 0x00, 
 0x7c, 0x01, 0x00, 0x00, 0xcc, 0x00, 0x00, 0x00, 0x60, 0x00, 0x00, 0x00, 
 0x04, 0x00, 0x00, 0x00, 0x56, 0xfd, 0xff, 0xff, 0x00, 0x00, 0x00, 0x01, 
 0x14, 0x00, 0x00, 0x00, 0x1c, 0x00, 0x00, 0x00, 0x1c, 0x00, 0x00, 0x00, 
 0x07, 0x00, 0x00, 0x00, 0x34, 0x00, 0x00, 0x00, 0x02, 0x00, 0x00, 0x00, 
 0xff, 0xff, 0xff, 0xff, 0xe8, 0x01, 0x00, 0x00, 0x38, 0xfd, 0xff, 0xff, 
 0x19, 0x00, 0x00, 0x00, 0x53, 0x74, 0x61, 0x74, 0x65, 0x66, 0x75, 0x6c, 
 0x50, 0x61, 0x72, 0x74, 0x69, 0x74, 0x69, 0x6f, 0x6e, 0x65, 0x64, 0x43, 
 0x61, 0x6c, 0x6c, 0x3a, 0x30, 0x00, 0x00, 0x00, 0x02, 0x00, 0x00, 0x00, 
 0x01, 0x00, 0x00, 0x00, 0xe8, 0x01, 0x00, 0x00, 0xae, 0xfd, 0xff, 0xff, 
 0x00, 0x00, 0x00, 0x01, 0x14, 0x00, 0x00, 0x00, 0x24, 0x00, 0x00, 0x00, 
 0x24, 0x00, 0x00, 0x00, 0x06, 0x00, 0x00, 0x00, 0x3c, 0x00, 0x00, 0x00, 
 0x04, 0x00, 0x00, 0x00, 0xff, 0xff, 0xff, 0xff, 0x01, 0x00, 0x00, 0x00, 
 0x3d, 0x00, 0x00, 0x00, 0x08, 0x00, 0x00, 0x00, 0x98, 0xfd, 0xff, 0xff, 
 0x1b, 0x00, 0x00, 0x00, 0x6d, 0x6f, 0x64, 0x65, 0x6c, 0x2f, 0x6d, 0x61, 
 0x78, 0x5f, 0x70, 0x6f, 0x6f, 0x6c, 0x69, 0x6e, 0x67, 0x32, 0x64, 0x2f, 
 0x4d, 0x61, 0x78, 0x50, 0x6f, 0x6f, 0x6c, 0x00, 0x04, 0x00, 0x00, 0x00, 
 0x01, 0x00, 0x00, 0x00, 0x01, 0x00, 0x00, 0x00, 0x3d, 0x00, 0x00, 0x00, 
 0x08, 0x00, 0x00, 0x00, 0x16, 0xfe, 0xff, 0xff, 0x00, 0x00, 0x00, 0x01, 
 0x14, 0x00, 0x00, 0x00, 0x24, 0x00, 0x00, 0x00, 0x24, 0x00, 0x00, 0x00, 
 0x05, 0x00, 0x00, 0x00, 0x80, 0x00, 0x00, 0x00, 0x04, 0x00, 0x00, 0x00, 
 0xff, 0xff, 0xff, 0xff, 0x01, 0x00, 0x00, 0x00, 0x7a, 0x00, 0x00, 0x00, 
 0x08, 0x00, 0x00, 0x00, 0x00, 0xfe, 0xff, 0xff, 0x5f, 0x00, 0x00, 0x00, 
 0x6d, 0x6f, 0x64, 0x65, 0x6c, 0x2f, 0x63, 0x6f, 0x6e, 0x76, 0x32, 0x64, 
 0x2f, 0x52, 0x65, 0x6c, 0x75, 0x3b, 0x6d, 0x6f, 0x64, 0x65, 0x6c, 0x2f, 
 0x63, 0x6f, 0x6e, 0x76, 0x32, 0x64, 0x2f, 0x42, 0x69, 0x61, 0x73, 0x41, 
 0x64, 0x64, 0x3b, 0x6d, 0x6f, 0x64, 0x65, 0x6c, 0x2f, 0x63, 0x6f, 0x6e, 
 0x76, 0x32, 0x64, 0x2f, 0x43, 0x6f, 0x6e, 0x76, 0x32, 0x44, 0x3b, 0x6d, 
 0x6f, 0x64, 0x65, 0x6c, 0x2f, 0x63, 0x6f, 0x6e, 0x76, 0x32, 0x64, 0x2f, 
 0x42, 0x69, 0x61, 0x73, 0x41, 0x64, 0x64, 0x2f, 0x52, 0x65, 0x61, 0x64, 
 0x56, 0x61, 0x72, 0x69, 0x61, 0x62, 0x6c, 0x65, 0x4f, 0x70, 0x31, 0x00, 
 0x04, 0x00, 0x00, 0x00, 0x01, 0x00, 0x00, 0x00, 0x01, 0x00, 0x00, 0x00, 
 0x7a, 0x00, 0x00, 0x00, 0x08, 0x00, 0x00, 0x00, 0x76, 0xff, 0xff, 0xff, 
 0x00, 0x00, 0x00, 0x01, 0x10, 0x00, 0x00, 0x00, 0x10, 0x00, 0x00, 0x00, 
 0x04, 0x00, 0x00, 0x00, 0x6c, 0x00, 0x00, 0x00, 0x94, 0xfe, 0xff, 0xff, 
 0x5e, 0x00, 0x00, 0x00, 0x6d, 0x6f, 0x64, 0x65, 0x6c, 0x2f, 0x63, 0x6f, 
 0x6e, 0x76, 0x32, 0x64, 0x2f, 0x52, 0x65, 0x6c, 0x75, 0x3b, 0x6d, 0x6f, 
 0x64, 0x65, 0x6c, 0x2f, 0x63, 0x6f, 0x6e, 0x76, 0x32, 0x64, 0x2f, 0x42, 
 0x69, 0x61, 0x73, 0x41, 0x64, 0x64, 0x3b, 0x6d, 0x6f, 0x64, 0x65, 0x6c, 
 0x2f, 0x63, 0x6f, 0x6e, 0x76, 0x32, 0x64, 0x2f, 0x43, 0x6f, 0x6e, 0x76, 
 0x32, 0x44, 0x3b, 0x6d, 0x6f, 0x64, 0x65, 0x6c, 0x2f, 0x63, 0x6f, 0x6e, 
 0x76, 0x32, 0x64, 0x2f, 0x42, 0x69, 0x61, 0x73, 0x41, 0x64, 0x64, 0x2f, 
 0x52, 0x65, 0x61, 0x64, 0x56, 0x61, 0x72, 0x69, 0x61, 0x62, 0x6c, 0x65, 
 0x4f, 0x70, 0x00, 0x00, 0x01, 0x00, 0x00, 0x00, 0x08, 0x00, 0x00, 0x00, 
 0x00, 0x00, 0x16, 0x00, 0x18, 0x00, 0x14, 0x00, 0x00, 0x00, 0x10, 0x00, 
 0x0c, 0x00, 0x08, 0x00, 0x00, 0x00, 0x00, 0x00, 0x00, 0x00, 0x07, 0x00, 
 0x16, 0x00, 0x00, 0x00, 0x00, 0x00, 0x00, 0x01, 0x10, 0x00, 0x00, 0x00, 
 0x10, 0x00, 0x00, 0x00, 0x03, 0x00, 0x00, 0x00, 0x20, 0x00, 0x00, 0x00, 
 0x34, 0xff, 0xff, 0xff, 0x13, 0x00, 0x00, 0x00, 0x6d, 0x6f, 0x64, 0x65, 
 0x6c, 0x2f, 0x63, 0x6f, 0x6e, 0x76, 0x32, 0x64, 0x2f, 0x43, 0x6f, 0x6e, 
 0x76, 0x32, 0x44, 0x00, 0x04, 0x00, 0x00, 0x00, 0x08, 0x00, 0x00, 0x00, 
 0x81, 0x00, 0x00, 0x00, 0x03, 0x00, 0x00, 0x00, 0x01, 0x00, 0x00, 0x00, 
 0x00, 0x00, 0x16, 0x00, 0x1c, 0x00, 0x18, 0x00, 0x17, 0x00, 0x10, 0x00, 
 0x0c, 0x00, 0x08, 0x00, 0x00, 0x00, 0x00, 0x00, 0x00, 0x00, 0x07, 0x00, 
 0x16, 0x00, 0x00, 0x00, 0x00, 0x00, 0x00, 0x01, 0x14, 0x00, 0x00, 0x00, 
 0x14, 0x00, 0x00, 0x00, 0x02, 0x00, 0x00, 0x00, 0x00, 0x00, 0x00, 0x02, 
 0x1c, 0x00, 0x00, 0x00, 0x98, 0xff, 0xff, 0xff, 0x0e, 0x00, 0x00, 0x00, 
 0x61, 0x72, 0x69, 0x74, 0x68, 0x2e, 0x63, 0x6f, 0x6e, 0x73, 0x74, 0x61, 
 0x6e, 0x74, 0x00, 0x00, 0x01, 0x00, 0x00, 0x00, 0x02, 0x00, 0x00, 0x00, 
 0x00, 0x00, 0x16, 0x00, 0x1c, 0x00, 0x18, 0x00, 0x00, 0x00, 0x14, 0x00, 
 0x10, 0x00, 0x0c, 0x00, 0x00, 0x00, 0x00, 0x00, 0x08, 0x00, 0x07, 0x00, 
 0x16, 0x00, 0x00, 0x00, 0x00, 0x00, 0x00, 0x01, 0x14, 0x00, 0x00, 0x00, 
 0x28, 0x00, 0x00, 0x00, 0x28, 0x00, 0x00, 0x00, 0x01, 0x00, 0x00, 0x00, 
 0x44, 0x00, 0x00, 0x00, 0x04, 0x00, 0x00, 0x00, 0xff, 0xff, 0xff, 0xff, 
 0x81, 0x00, 0x00, 0x00, 0x7c, 0x00, 0x00, 0x00, 0x01, 0x00, 0x00, 0x00, 
 0x04, 0x00, 0x04, 0x00, 0x04, 0x00, 0x00, 0x00, 0x1e, 0x00, 0x00, 0x00, 
 0x73, 0x65, 0x72, 0x76, 0x69, 0x6e, 0x67, 0x5f, 0x64, 0x65, 0x66, 0x61, 
 0x75, 0x6c, 0x74, 0x5f, 0x63, 0x6f, 0x6e, 0x76, 0x32, 0x64, 0x5f, 0x69, 
 0x6e, 0x70, 0x75, 0x74, 0x3a, 0x30, 0x00, 0x00, 0x04, 0x00, 0x00, 0x00, 
 0x01, 0x00, 0x00, 0x00, 0x81, 0x00, 0x00, 0x00, 0x7c, 0x00, 0x00, 0x00, 
 0x01, 0x00, 0x00, 0x00, 0x03, 0x00, 0x00, 0x00, 0x30, 0x00, 0x00, 0x00, 
 0x14, 0x00, 0x00, 0x00, 0x04, 0x00, 0x00, 0x00, 0xe8, 0xff, 0xff, 0xff, 
 0x16, 0x00, 0x00, 0x00, 0x00, 0x00, 0x00, 0x16, 0xf4, 0xff, 0xff, 0xff, 
 0x11, 0x00, 0x00, 0x00, 0x00, 0x00, 0x00, 0x11, 0x0c, 0x00, 0x0c, 0x00, 
 0x0b, 0x00, 0x00, 0x00, 0x00, 0x00, 0x04, 0x00, 0x0c, 0x00, 0x00, 0x00, 
 0x03, 0x00, 0x00, 0x00, 0x00, 0x00, 0x00, 0x03
};

const int extractor_model_len = 14192;

#endif 
