
#ifndef QAT_AUDIO_MODEL_DATA_H
#define QAT_AUDIO_MODEL_DATA_H

const unsigned char qat_model_data[] = {
 0x1c, 0x00, 0x00, 0x00, 0x54, 0x46, 0x4c, 0x33, 0x14, 0x00, 0x20, 0x00, 
 0x1c, 0x00, 0x18, 0x00, 0x14, 0x00, 0x10, 0x00, 0x0c, 0x00, 0x00, 0x00, 
 0x08, 0x00, 0x04, 0x00, 0x14, 0x00, 0x00, 0x00, 0x1c, 0x00, 0x00, 0x00, 
 0x90, 0x00, 0x00, 0x00, 0xe8, 0x00, 0x00, 0x00, 0x44, 0x10, 0x00, 0x00, 
 0x54, 0x10, 0x00, 0x00, 0x5c, 0x19, 0x00, 0x00, 0x03, 0x00, 0x00, 0x00, 
 0x01, 0x00, 0x00, 0x00, 0x04, 0x00, 0x00, 0x00, 0x16, 0xef, 0xff, 0xff, 
 0x0c, 0x00, 0x00, 0x00, 0x1c, 0x00, 0x00, 0x00, 0x3c, 0x00, 0x00, 0x00, 
 0x0f, 0x00, 0x00, 0x00, 0x73, 0x65, 0x72, 0x76, 0x69, 0x6e, 0x67, 0x5f, 
 0x64, 0x65, 0x66, 0x61, 0x75, 0x6c, 0x74, 0x00, 0x01, 0x00, 0x00, 0x00, 
 0x04, 0x00, 0x00, 0x00, 0x8c, 0xff, 0xff, 0xff, 0x0a, 0x00, 0x00, 0x00, 
 0x04, 0x00, 0x00, 0x00, 0x0b, 0x00, 0x00, 0x00, 0x71, 0x75, 0x61, 0x6e, 
 0x74, 0x5f, 0x64, 0x65, 0x6e, 0x73, 0x65, 0x00, 0x01, 0x00, 0x00, 0x00, 
 0x04, 0x00, 0x00, 0x00, 0xb0, 0xff, 0xff, 0xff, 0x03, 0x00, 0x00, 0x00, 
 0x04, 0x00, 0x00, 0x00, 0x0c, 0x00, 0x00, 0x00, 0x63, 0x6f, 0x6e, 0x76, 
 0x32, 0x64, 0x5f, 0x69, 0x6e, 0x70, 0x75, 0x74, 0x00, 0x00, 0x00, 0x00, 
 0x02, 0x00, 0x00, 0x00, 0x34, 0x00, 0x00, 0x00, 0x04, 0x00, 0x00, 0x00, 
 0xdc, 0xff, 0xff, 0xff, 0x0f, 0x00, 0x00, 0x00, 0x04, 0x00, 0x00, 0x00, 
 0x13, 0x00, 0x00, 0x00, 0x43, 0x4f, 0x4e, 0x56, 0x45, 0x52, 0x53, 0x49, 
 0x4f, 0x4e, 0x5f, 0x4d, 0x45, 0x54, 0x41, 0x44, 0x41, 0x54, 0x41, 0x00, 
 0x08, 0x00, 0x0c, 0x00, 0x08, 0x00, 0x04, 0x00, 0x08, 0x00, 0x00, 0x00, 
 0x0e, 0x00, 0x00, 0x00, 0x04, 0x00, 0x00, 0x00, 0x13, 0x00, 0x00, 0x00, 
 0x6d, 0x69, 0x6e, 0x5f, 0x72, 0x75, 0x6e, 0x74, 0x69, 0x6d, 0x65, 0x5f, 
 0x76, 0x65, 0x72, 0x73, 0x69, 0x6f, 0x6e, 0x00, 0x10, 0x00, 0x00, 0x00, 
 0x58, 0x0f, 0x00, 0x00, 0x50, 0x0f, 0x00, 0x00, 0x38, 0x0f, 0x00, 0x00, 
 0x00, 0x0f, 0x00, 0x00, 0xec, 0x0e, 0x00, 0x00, 0xe4, 0x0e, 0x00, 0x00, 
 0xbc, 0x02, 0x00, 0x00, 0xb4, 0x02, 0x00, 0x00, 0xac, 0x02, 0x00, 0x00, 
 0xa4, 0x02, 0x00, 0x00, 0xac, 0x00, 0x00, 0x00, 0xa4, 0x00, 0x00, 0x00, 
 0x9c, 0x00, 0x00, 0x00, 0x94, 0x00, 0x00, 0x00, 0x74, 0x00, 0x00, 0x00, 
 0x04, 0x00, 0x00, 0x00, 0x06, 0xf1, 0xff, 0xff, 0x04, 0x00, 0x00, 0x00, 
 0x60, 0x00, 0x00, 0x00, 0x0c, 0x00, 0x00, 0x00, 0x08, 0x00, 0x0e, 0x00, 
 0x08, 0x00, 0x04, 0x00, 0x08, 0x00, 0x00, 0x00, 0x10, 0x00, 0x00, 0x00, 
 0x28, 0x00, 0x00, 0x00, 0x00, 0x00, 0x06, 0x00, 0x08, 0x00, 0x04, 0x00, 
 0x06, 0x00, 0x00, 0x00, 0x04, 0x00, 0x00, 0x00, 0x01, 0x00, 0x00, 0x00, 
 0xd0, 0x07, 0x00, 0x00, 0x0c, 0x00, 0x18, 0x00, 0x14, 0x00, 0x10, 0x00, 
 0x0c, 0x00, 0x04, 0x00, 0x0c, 0x00, 0x00, 0x00, 0xa2, 0x3a, 0xc5, 0xa2, 
 0x3b, 0xca, 0xc0, 0xbb, 0x02, 0x00, 0x00, 0x00, 0x02, 0x00, 0x00, 0x00, 
 0x04, 0x00, 0x00, 0x00, 0x06, 0x00, 0x00, 0x00, 0x32, 0x2e, 0x32, 0x30, 
 0x2e, 0x30, 0x00, 0x00, 0x72, 0xf1, 0xff, 0xff, 0x04, 0x00, 0x00, 0x00, 
 0x10, 0x00, 0x00, 0x00, 0x31, 0x2e, 0x31, 0x34, 0x2e, 0x30, 0x00, 0x00, 
 0x00, 0x00, 0x00, 0x00, 0x00, 0x00, 0x00, 0x00, 0x70, 0xe8, 0xff, 0xff, 
 0x74, 0xe8, 0xff, 0xff, 0x78, 0xe8, 0xff, 0xff, 0x9a, 0xf1, 0xff, 0xff, 
 0x04, 0x00, 0x00, 0x00, 0xe8, 0x01, 0x00, 0x00, 0x4f, 0x10, 0xdf, 0xb2, 
 0xb8, 0xd6, 0xf3, 0x1a, 0x53, 0x2e, 0xaa, 0x2e, 0xfc, 0xb7, 0xf0, 0xf1, 
 0x17, 0xdb, 0x11, 0xbe, 0x0f, 0x21, 0x41, 0xc5, 0xbe, 0xf0, 0xd8, 0x07, 
 0xb2, 0xaf, 0x2d, 0xc7, 0x01, 0xc7, 0x51, 0xd5, 0xa5, 0xfe, 0xae, 0x48, 
 0x3a, 0xcd, 0x5e, 0xd8, 0x38, 0x02, 0x20, 0xa8, 0x42, 0x4c, 0xdd, 0xf7, 
 0xc1, 0x2f, 0x3f, 0xc0, 0xcb, 0x0d, 0xbe, 0xce, 0xfc, 0xcd, 0xcc, 0xc9, 
 0xd4, 0xd7, 0xdd, 0xe5, 0xe9, 0x4d, 0x4e, 0x1d, 0xc3, 0xbb, 0x2d, 0x29, 
 0x28, 0xbd, 0xbb, 0xd7, 0x2f, 0xd4, 0xe8, 0xad, 0x46, 0x55, 0x11, 0xff, 
 0xf2, 0xf9, 0xdf, 0x12, 0x02, 0xfc, 0xad, 0xbd, 0x00, 0x23, 0xc8, 0x53, 
 0xfa, 0xf7, 0xa8, 0x50, 0xdc, 0x0c, 0x09, 0x12, 0x5a, 0x2c, 0x03, 0x5b, 
 0xf1, 0xfd, 0x3e, 0xbf, 0x33, 0x2b, 0xc3, 0x11, 0x4a, 0xac, 0xc2, 0x45, 
 0x19, 0x47, 0x08, 0xc4, 0x1e, 0xf4, 0x22, 0x20, 0x1f, 0xcb, 0xbd, 0xac, 
 0xcb, 0x65, 0xb2, 0xb9, 0xd7, 0xd5, 0xd2, 0x32, 0x2c, 0x3f, 0x32, 0xc6, 
 0x49, 0xb3, 0x5a, 0xc0, 0xe9, 0xe1, 0xec, 0xe0, 0x3b, 0x16, 0x2a, 0xb9, 
 0xe2, 0x2c, 0x52, 0xa2, 0x26, 0x4b, 0x5b, 0xd8, 0xf4, 0xfc, 0xaa, 0x2f, 
 0xfd, 0x28, 0x01, 0x32, 0xaa, 0x04, 0x58, 0xb0, 0xc4, 0xc1, 0xe3, 0x3b, 
 0xc5, 0x1c, 0x39, 0xae, 0x47, 0x2c, 0xf3, 0x11, 0xc7, 0x54, 0xd8, 0x2e, 
 0xf1, 0x4f, 0xc7, 0x33, 0x49, 0x41, 0xfd, 0xe6, 0xfb, 0x09, 0x34, 0x36, 
 0x36, 0x3d, 0x45, 0xb0, 0x0e, 0x22, 0x9a, 0x6b, 0x46, 0xfb, 0x69, 0x51, 
 0x2a, 0x23, 0xc8, 0xf5, 0x4e, 0xf5, 0xf8, 0xef, 0x56, 0xc2, 0x33, 0x0c, 
 0x16, 0xed, 0xb7, 0x21, 0x44, 0x57, 0xf3, 0xd3, 0x41, 0xfc, 0x08, 0xe9, 
 0x26, 0x30, 0x09, 0x60, 0x6a, 0xa4, 0xd5, 0xaf, 0x54, 0xb6, 0x08, 0x40, 
 0xfd, 0xb7, 0x50, 0x25, 0x54, 0xea, 0xb2, 0x5c, 0xda, 0x91, 0x5b, 0x10, 
 0x08, 0xeb, 0x95, 0x7c, 0x5f, 0xc5, 0xaf, 0xba, 0x3d, 0xf4, 0x29, 0x27, 
 0xea, 0xf1, 0xdf, 0x59, 0x2d, 0x5d, 0x19, 0xbf, 0xf6, 0x91, 0x3f, 0xdb, 
 0x29, 0x76, 0xa2, 0x38, 0x1b, 0x98, 0xc0, 0xb7, 0xea, 0xe2, 0x8e, 0xeb, 
 0xf5, 0x8b, 0xd6, 0x30, 0xc8, 0x58, 0x89, 0xe8, 0x21, 0xee, 0x47, 0x94, 
 0x72, 0x5c, 0x81, 0xe5, 0xc6, 0x02, 0x35, 0xef, 0x07, 0x6c, 0xc7, 0x42, 
 0x12, 0xe0, 0xe9, 0xd5, 0x5d, 0xd3, 0xdf, 0x0a, 0xd3, 0xbe, 0x33, 0x0b, 
 0xdd, 0x40, 0x33, 0x0d, 0x07, 0xc3, 0xc5, 0xad, 0x59, 0x00, 0x24, 0x1b, 
 0x6e, 0xc3, 0x47, 0x3b, 0x2b, 0x47, 0xdb, 0xd8, 0xdd, 0x53, 0xac, 0xc2, 
 0x0b, 0xde, 0x26, 0x60, 0xdf, 0x38, 0xbf, 0x42, 0x5a, 0xc1, 0x2d, 0xed, 
 0x53, 0xc8, 0x1f, 0x06, 0x3a, 0xed, 0xf6, 0x42, 0xbf, 0xb3, 0xe9, 0xc2, 
 0x0e, 0x12, 0xc3, 0x27, 0x44, 0xd6, 0xcb, 0x1c, 0x24, 0xf1, 0x29, 0xd9, 
 0x06, 0xec, 0x20, 0x1e, 0x2d, 0xbc, 0xb6, 0xd9, 0xe8, 0xf0, 0x37, 0xce, 
 0xb6, 0xbd, 0xeb, 0x14, 0xcd, 0x4a, 0xfd, 0x0b, 0x18, 0x2d, 0xf9, 0xfc, 
 0xce, 0xe6, 0x28, 0x4c, 0x3c, 0xb8, 0x19, 0x0c, 0xcd, 0xcd, 0x4c, 0xc5, 
 0xb8, 0xd8, 0x3d, 0x43, 0xaa, 0x2f, 0xc6, 0x19, 0xe1, 0xe2, 0x06, 0xfa, 
 0xc2, 0xec, 0xf2, 0x17, 0xe4, 0x2b, 0x56, 0x3c, 0x26, 0x1a, 0xbb, 0x28, 
 0xb9, 0x5f, 0x23, 0xe2, 0x32, 0x57, 0xf2, 0x4f, 0x09, 0x5d, 0xc4, 0x0e, 
 0xf0, 0x10, 0x40, 0xd8, 0x07, 0x45, 0x3e, 0x4b, 0xd2, 0xcb, 0x5f, 0xe5, 
 0x17, 0x3f, 0x4a, 0x51, 0x70, 0xea, 0xff, 0xff, 0x74, 0xea, 0xff, 0xff, 
 0x78, 0xea, 0xff, 0xff, 0x9a, 0xf3, 0xff, 0xff, 0x04, 0x00, 0x00, 0x00, 
 0x18, 0x0c, 0x00, 0x00, 0xbc, 0xf2, 0xfc, 0xee, 0x3a, 0x30, 0x33, 0xe5, 
 0xcc, 0xd7, 0x45, 0xee, 0x30, 0xf4, 0xf0, 0xdd, 0x0e, 0xf1, 0xca, 0xf2, 
 0xeb, 0x42, 0x13, 0x41, 0x45, 0x40, 0xed, 0x0d, 0x38, 0x2c, 0xf6, 0x34, 
 0xf5, 0x3f, 0x42, 0xcb, 0xf0, 0xc9, 0xd4, 0x2b, 0x10, 0xd9, 0xe6, 0xf2, 
 0xd5, 0xeb, 0x1a, 0xf4, 0x28, 0xd0, 0xb7, 0xe4, 0xd0, 0x0e, 0xd2, 0xe7, 
 0xc4, 0xc3, 0x1a, 0xe7, 0xd6, 0xf1, 0x1d, 0x3a, 0x0f, 0x02, 0xcd, 0x34, 
 0xd7, 0x45, 0x0a, 0x00, 0x4f, 0x38, 0xe5, 0x49, 0x45, 0x1f, 0x3d, 0x16, 
 0x49, 0x09, 0x13, 0x3a, 0xe1, 0xf8, 0xf7, 0xe1, 0x00, 0x0a, 0xce, 0x4b, 
 0xd1, 0x1f, 0xfb, 0xda, 0x32, 0x2f, 0xc3, 0x46, 0xdc, 0xf3, 0x26, 0xeb, 
 0xee, 0xfe, 0xbe, 0xce, 0x02, 0x43, 0x01, 0xdf, 0xe5, 0x0f, 0x35, 0x34, 
 0xe2, 0x04, 0x28, 0x49, 0xf1, 0xd6, 0xff, 0x2c, 0x2f, 0x49, 0x4d, 0x0e, 
 0xf4, 0xde, 0xfb, 0xc2, 0x3f, 0x38, 0xff, 0x0d, 0xe8, 0x33, 0x11, 0x1d, 
 0x37, 0xce, 0xfd, 0x3b, 0x17, 0xd1, 0xcf, 0xe1, 0xf6, 0xc1, 0x35, 0x26, 
 0x2e, 0xef, 0xf0, 0xd6, 0x2c, 0xea, 0xc0, 0x21, 0x17, 0x35, 0x0f, 0x30, 
 0xe6, 0x19, 0xfb, 0xd1, 0x0f, 0x25, 0xd8, 0xef, 0xcb, 0x1f, 0xf8, 0xf5, 
 0x3c, 0x28, 0xf4, 0x16, 0xd4, 0x33, 0xf8, 0xf1, 0xe6, 0x0b, 0x5b, 0x50, 
 0x5e, 0x48, 0xf3, 0x52, 0x79, 0xfa, 0x6d, 0x7f, 0x6b, 0x5d, 0x34, 0x01, 
 0x7d, 0x12, 0x37, 0x46, 0xf3, 0x27, 0x65, 0x51, 0x0b, 0x53, 0x30, 0x19, 
 0x25, 0x78, 0x34, 0xf2, 0x48, 0xf2, 0x49, 0xe9, 0xf0, 0x02, 0x17, 0x5e, 
 0xdb, 0xff, 0x67, 0xca, 0x3b, 0x1e, 0x5d, 0x42, 0xd8, 0xd7, 0x1b, 0x31, 
 0xb8, 0x17, 0x63, 0x4a, 0xd0, 0xba, 0xdf, 0x5e, 0xe7, 0x34, 0x0b, 0x3c, 
 0x08, 0x23, 0xe1, 0xf2, 0x32, 0x53, 0x03, 0xf6, 0xf0, 0xb4, 0xe7, 0x38, 
 0xe6, 0xd6, 0x52, 0x17, 0x49, 0x2a, 0xd8, 0xdd, 0x27, 0xdf, 0x33, 0xe0, 
 0x4c, 0xc8, 0x4c, 0xed, 0x38, 0xea, 0xf0, 0x02, 0x64, 0x5f, 0x52, 0xea, 
 0x58, 0x3a, 0x47, 0x03, 0x37, 0x25, 0x1c, 0xb2, 0x0d, 0x11, 0xd5, 0x42, 
 0x3f, 0x54, 0x52, 0x3c, 0x2b, 0xf3, 0xe1, 0x0e, 0xed, 0xf8, 0x1d, 0xb2, 
 0x2f, 0xfa, 0x38, 0x35, 0x26, 0xb6, 0x2e, 0x3c, 0x5b, 0xcd, 0xca, 0xf0, 
 0x1f, 0x1e, 0x12, 0x44, 0xcf, 0x0e, 0x04, 0x45, 0xf0, 0xc3, 0x9e, 0xc9, 
 0x26, 0xe5, 0x3c, 0xe0, 0xe7, 0xe7, 0x56, 0xb8, 0xf8, 0xf6, 0xbd, 0x1e, 
 0x05, 0xc8, 0x45, 0x12, 0xf1, 0xc6, 0xec, 0xca, 0x15, 0xda, 0xff, 0xdf, 
 0xd0, 0x0d, 0x15, 0xc3, 0x00, 0x06, 0x27, 0x21, 0x48, 0x15, 0x1f, 0x37, 
 0xee, 0x12, 0x26, 0x43, 0xba, 0x25, 0xf0, 0xe1, 0xfa, 0xfa, 0x1e, 0xfd, 
 0xf5, 0xbd, 0x0e, 0xd5, 0x2d, 0xf4, 0xc5, 0x0e, 0x1d, 0xfc, 0xf1, 0x4c, 
 0x4f, 0x1a, 0x05, 0xe6, 0x04, 0x2f, 0x5d, 0xff, 0xfe, 0xf4, 0x15, 0x2b, 
 0x1b, 0x29, 0x2b, 0x47, 0xee, 0xfc, 0x07, 0x02, 0x1c, 0x0f, 0x4e, 0x30, 
 0x00, 0x2e, 0x10, 0x15, 0x70, 0x4c, 0x0d, 0x53, 0x61, 0x48, 0x68, 0xfb, 
 0x11, 0x1b, 0x2b, 0x10, 0x05, 0x15, 0x7f, 0x3e, 0x1c, 0x71, 0x79, 0x75, 
 0x07, 0x1d, 0x29, 0x41, 0x46, 0x07, 0x48, 0x1d, 0x4e, 0x12, 0xf4, 0x1c, 
 0xd5, 0xda, 0xd2, 0xf5, 0xe1, 0x23, 0xe6, 0x19, 0xed, 0xda, 0x29, 0x34, 
 0xd3, 0xf0, 0xcd, 0x46, 0x1d, 0xfc, 0x05, 0x07, 0xdd, 0xfb, 0xf2, 0x2f, 
 0xd7, 0x13, 0xf0, 0xf6, 0x04, 0x1a, 0x28, 0xe1, 0x28, 0xdb, 0x15, 0x07, 
 0x57, 0x36, 0x4c, 0x3f, 0xe3, 0x2d, 0x2d, 0xd2, 0x26, 0xd6, 0x01, 0xd1, 
 0x41, 0x0c, 0xd7, 0x12, 0xe9, 0x05, 0x33, 0x21, 0xff, 0x2a, 0x33, 0x1c, 
 0x0e, 0x49, 0xff, 0xd6, 0xe1, 0xd4, 0x11, 0x11, 0xf0, 0xf8, 0x21, 0xec, 
 0x1a, 0x12, 0xf5, 0x45, 0xce, 0x2b, 0x4b, 0x0a, 0x14, 0x25, 0x4f, 0x70, 
 0x67, 0x22, 0x69, 0x2e, 0x20, 0x2d, 0x18, 0x1f, 0x13, 0x5c, 0x42, 0x6c, 
 0x78, 0x77, 0xf7, 0x66, 0x62, 0x28, 0x00, 0x2e, 0x51, 0x46, 0x24, 0x17, 
 0x00, 0x3f, 0x37, 0x5d, 0xef, 0x43, 0xcf, 0x58, 0x3f, 0x12, 0x41, 0x44, 
 0xe7, 0x1b, 0x11, 0x15, 0x03, 0x3f, 0x50, 0xd8, 0x1e, 0x3e, 0xf3, 0xd0, 
 0x26, 0xb1, 0x13, 0x05, 0x10, 0x3c, 0xac, 0xb9, 0xef, 0xec, 0x1f, 0xeb, 
 0xaf, 0xc5, 0x1d, 0xb6, 0x11, 0x1b, 0xf2, 0xa6, 0xe3, 0x1b, 0x1e, 0xeb, 
 0xca, 0xae, 0x0c, 0xc0, 0xe9, 0xae, 0xba, 0x21, 0xad, 0xee, 0x11, 0xc8, 
 0xd2, 0x08, 0xf8, 0x00, 0xf0, 0xed, 0xd4, 0xfd, 0xdc, 0xfe, 0xb4, 0xc5, 
 0xc3, 0x10, 0xe2, 0xd1, 0xdd, 0xdd, 0x1c, 0xcf, 0x18, 0xc5, 0x0b, 0xff, 
 0xee, 0xd5, 0x01, 0xc8, 0xb0, 0xf0, 0xe6, 0x16, 0xda, 0x01, 0x01, 0xe4, 
 0xe9, 0xf2, 0x2e, 0xdf, 0xfc, 0x3a, 0x14, 0x4d, 0xca, 0x0d, 0x2c, 0xe6, 
 0x31, 0x24, 0x22, 0x37, 0xe6, 0xda, 0x30, 0x33, 0xee, 0x0d, 0x2e, 0xf9, 
 0xbc, 0xe0, 0xd4, 0x03, 0x1f, 0xc1, 0x14, 0x27, 0xf3, 0xe9, 0xfe, 0xc8, 
 0x13, 0xdd, 0x26, 0x2b, 0xdc, 0x23, 0xd8, 0xee, 0xdd, 0xb9, 0x19, 0xd1, 
 0xbd, 0x3e, 0xf5, 0xf8, 0x41, 0x37, 0x1d, 0xfd, 0xe8, 0x1a, 0x39, 0x32, 
 0xc1, 0xcc, 0xb8, 0xe2, 0xde, 0xd1, 0xff, 0xde, 0x19, 0xd6, 0x43, 0x00, 
 0xc0, 0x2e, 0x13, 0xc6, 0x46, 0xf0, 0x0f, 0x0c, 0x1c, 0x25, 0x45, 0xc7, 
 0xb8, 0xde, 0xff, 0xee, 0x3f, 0xf0, 0xd3, 0x28, 0xc8, 0xcc, 0x37, 0x02, 
 0xdb, 0xd5, 0xfd, 0x32, 0x40, 0x1c, 0x19, 0x19, 0x3e, 0xc9, 0x00, 0x42, 
 0x0f, 0x3a, 0xf1, 0x13, 0xe2, 0xca, 0xd8, 0xcb, 0xd9, 0x18, 0x22, 0xc4, 
 0xc3, 0xb5, 0x55, 0xb1, 0xa2, 0x1e, 0xa7, 0xbe, 0xec, 0x50, 0xd5, 0xe8, 
 0xc0, 0xd2, 0x0f, 0x46, 0xe7, 0x4e, 0xa4, 0xbe, 0x39, 0x8f, 0xd3, 0xeb, 
 0x26, 0xb4, 0x09, 0xa6, 0x5c, 0xc2, 0x99, 0x02, 0x2c, 0xfa, 0xc9, 0x11, 
 0xfd, 0xe3, 0x5b, 0xf3, 0x32, 0x46, 0x3c, 0x21, 0x2f, 0x48, 0xf0, 0x27, 
 0xe7, 0x99, 0xf6, 0x0c, 0x3d, 0x3a, 0x00, 0xc1, 0x48, 0x20, 0x4f, 0x54, 
 0x12, 0xac, 0x45, 0x25, 0xc9, 0x01, 0x0c, 0x47, 0xf8, 0x7e, 0x50, 0xdd, 
 0x0f, 0xfc, 0x27, 0x7d, 0xa6, 0xc1, 0x41, 0x67, 0x7b, 0x22, 0xe6, 0xfb, 
 0x62, 0x10, 0xc9, 0x50, 0x0b, 0x0e, 0x21, 0x38, 0x44, 0x5d, 0xed, 0xf2, 
 0x09, 0x2f, 0x36, 0xe3, 0x7b, 0xe3, 0x29, 0x56, 0x16, 0x57, 0xf6, 0x11, 
 0x54, 0x7d, 0x64, 0x1b, 0xf9, 0xbb, 0x09, 0x5b, 0x4b, 0x66, 0x5a, 0x1c, 
 0xd2, 0x1d, 0xf6, 0xf2, 0xe6, 0xba, 0x32, 0x14, 0x48, 0xde, 0x21, 0x49, 
 0x05, 0x47, 0x37, 0xfe, 0x9f, 0xaf, 0x35, 0xf9, 0x46, 0xef, 0x13, 0xd1, 
 0x76, 0x7f, 0xe5, 0xc9, 0xd5, 0x56, 0x14, 0x76, 0x1c, 0x59, 0x01, 0xcf, 
 0x64, 0x06, 0x0d, 0xcf, 0xe5, 0xde, 0x25, 0xd4, 0x35, 0x47, 0xfc, 0xda, 
 0xc0, 0x5d, 0x20, 0x0d, 0xdd, 0x2b, 0xf2, 0x1f, 0xe1, 0xa2, 0xb8, 0xc8, 
 0x49, 0xcd, 0xfc, 0x67, 0x36, 0x4e, 0x29, 0xc7, 0xe0, 0x07, 0xbe, 0x32, 
 0xae, 0x03, 0x5b, 0x04, 0xd6, 0xd4, 0xc5, 0xd1, 0xdc, 0x51, 0xef, 0xa8, 
 0x2d, 0xd1, 0x3a, 0x12, 0xd5, 0xdc, 0xde, 0x5b, 0x48, 0xc1, 0xfe, 0xef, 
 0x32, 0xf4, 0xd7, 0xc5, 0xbe, 0x0f, 0x05, 0x27, 0x2e, 0x31, 0x03, 0x2c, 
 0xc5, 0x1a, 0x8a, 0xf2, 0xe0, 0x16, 0x0f, 0x51, 0x39, 0xb5, 0x54, 0x2d, 
 0xb8, 0x56, 0x02, 0xc8, 0xae, 0xbf, 0xf5, 0xc2, 0x0c, 0xc8, 0xb7, 0x19, 
 0x31, 0x0b, 0xf6, 0xb5, 0x60, 0xc1, 0x11, 0x18, 0xf7, 0x3c, 0xd1, 0x28, 
 0xcc, 0x19, 0xe0, 0x32, 0xd7, 0xde, 0xd5, 0x21, 0x01, 0x33, 0xf1, 0x18, 
 0x4e, 0xc9, 0xbd, 0x2e, 0xda, 0x2a, 0xc3, 0x3e, 0xc3, 0x2e, 0x45, 0xea, 
 0xd4, 0x09, 0x23, 0xcf, 0x48, 0xcf, 0xf0, 0x19, 0xd9, 0xd3, 0xd4, 0xc6, 
 0x0f, 0x50, 0x0c, 0x17, 0x3a, 0xb9, 0x0b, 0xdf, 0x42, 0xd7, 0xeb, 0x5f, 
 0xb9, 0xed, 0x2d, 0x27, 0x23, 0x44, 0x42, 0x43, 0x4f, 0xa8, 0x61, 0xd5, 
 0x13, 0x1e, 0x4c, 0xaf, 0x43, 0x2a, 0xb4, 0xff, 0xaf, 0xcd, 0xc7, 0x0d, 
 0xa1, 0x12, 0xeb, 0xc3, 0xef, 0x45, 0xcd, 0x08, 0x44, 0x34, 0xee, 0x34, 
 0xb8, 0x37, 0x4a, 0x58, 0xae, 0xec, 0xea, 0xef, 0x1b, 0x3c, 0x1b, 0xe0, 
 0x01, 0xbe, 0xf4, 0x42, 0x47, 0x38, 0x03, 0x20, 0x3e, 0x08, 0xe2, 0x1a, 
 0xfa, 0xf6, 0x1a, 0x58, 0xd0, 0xb2, 0xee, 0x41, 0x4d, 0x43, 0xe7, 0x58, 
 0x4b, 0x49, 0x02, 0x5a, 0x36, 0xfc, 0xdc, 0x50, 0x3e, 0x1d, 0x9a, 0xb8, 
 0x28, 0x08, 0xee, 0xd8, 0x4c, 0xea, 0x14, 0x8a, 0xc1, 0xff, 0x6a, 0x9d, 
 0x1f, 0xa0, 0x27, 0x18, 0xc0, 0x0b, 0xbf, 0xfb, 0xe8, 0x56, 0xd2, 0x4c, 
 0x6c, 0xdb, 0x4e, 0xa8, 0x1d, 0x9c, 0xd2, 0xa6, 0xe4, 0x1e, 0x1e, 0xd4, 
 0x0d, 0x2d, 0x03, 0x14, 0xe7, 0x02, 0xa6, 0x25, 0x5d, 0x0f, 0xb1, 0x55, 
 0xa9, 0x8d, 0x34, 0x2a, 0xa8, 0x1e, 0x52, 0xb0, 0xee, 0xd1, 0x9f, 0xd8, 
 0x5a, 0x4a, 0x41, 0x26, 0xb6, 0xa1, 0xa1, 0xe6, 0x40, 0xef, 0x60, 0xd8, 
 0x09, 0xf9, 0xdf, 0x24, 0xa3, 0x66, 0xa3, 0x2f, 0x42, 0xf5, 0x30, 0x53, 
 0x98, 0xd8, 0x96, 0xf4, 0xc7, 0xe3, 0xdc, 0x8d, 0x0a, 0x32, 0xf5, 0x45, 
 0xc7, 0x05, 0xb8, 0xfc, 0x9a, 0x0c, 0xf7, 0xc8, 0xd2, 0x5f, 0x46, 0x03, 
 0xf0, 0xdb, 0x00, 0xcc, 0x44, 0x0f, 0xef, 0x9e, 0x25, 0x44, 0x23, 0xa1, 
 0xd1, 0xdf, 0x33, 0x05, 0x4a, 0x1b, 0x17, 0xb4, 0xc4, 0x4a, 0xef, 0xdb, 
 0x19, 0xd0, 0xd6, 0x59, 0xbd, 0xc6, 0x3b, 0x21, 0xb1, 0x17, 0xef, 0xcf, 
 0x32, 0x1c, 0xef, 0x21, 0xd3, 0xe0, 0x05, 0x53, 0xd2, 0x1d, 0xd5, 0xd2, 
 0xc8, 0x1b, 0xc9, 0xa8, 0xaa, 0x32, 0x12, 0x5d, 0xfd, 0x4c, 0x30, 0xda, 
 0xe4, 0xc4, 0x9f, 0xd0, 0x3b, 0x12, 0x43, 0xc7, 0x66, 0xe2, 0x3c, 0xff, 
 0x27, 0x35, 0xcb, 0x36, 0x38, 0xaa, 0xc5, 0x56, 0x49, 0xd8, 0x3a, 0xed, 
 0x62, 0x62, 0x2a, 0x0f, 0x59, 0xe9, 0xa1, 0xd7, 0x28, 0x0e, 0xee, 0xe8, 
 0xd1, 0x8a, 0xc1, 0xea, 0x28, 0x2c, 0xbe, 0x57, 0xdd, 0xcd, 0x34, 0x0c, 
 0xf3, 0x97, 0x8f, 0x8a, 0xc7, 0x25, 0x4b, 0xb2, 0x4a, 0xc7, 0x12, 0x30, 
 0x59, 0x01, 0xe0, 0xdc, 0xa1, 0x63, 0xdd, 0x07, 0x49, 0x04, 0x95, 0xd5, 
 0x4a, 0x81, 0x13, 0x97, 0xd9, 0x25, 0xe8, 0xf3, 0xa3, 0xe9, 0x92, 0x16, 
 0xbb, 0xf2, 0x5a, 0xcd, 0x39, 0x9f, 0x8e, 0xc0, 0x9a, 0xd6, 0x07, 0x8b, 
 0xa1, 0xc3, 0x8a, 0x48, 0xa0, 0x50, 0x4f, 0x41, 0x62, 0x3b, 0x05, 0x95, 
 0x16, 0x37, 0x46, 0x5b, 0xe1, 0x3c, 0x10, 0xeb, 0xad, 0xb7, 0xea, 0xd7, 
 0xdb, 0x02, 0x15, 0x97, 0x38, 0xd2, 0x86, 0x0a, 0x23, 0xeb, 0xc0, 0x4c, 
 0xbe, 0x0e, 0x1b, 0xa9, 0x03, 0x8b, 0xfc, 0xba, 0x46, 0x29, 0x1e, 0x43, 
 0x06, 0x58, 0x8a, 0xc4, 0xa0, 0xf2, 0x9a, 0xc2, 0x51, 0x2f, 0x08, 0xe4, 
 0xc8, 0x2c, 0xec, 0x90, 0x46, 0x06, 0x3b, 0xbd, 0xe4, 0xee, 0x31, 0x53, 
 0xd9, 0x38, 0xf9, 0xf0, 0x4e, 0xa3, 0xec, 0x17, 0x04, 0xf4, 0x37, 0x9a, 
 0x6a, 0xcf, 0x8e, 0xbc, 0xb5, 0xbc, 0xc2, 0x1f, 0xf8, 0xd1, 0x47, 0xf4, 
 0xdc, 0x8e, 0x1d, 0xa8, 0x5a, 0x2c, 0x59, 0x1a, 0xfc, 0x06, 0x24, 0xf1, 
 0x20, 0x17, 0x34, 0xbc, 0xdc, 0x2d, 0x2d, 0x23, 0x06, 0x23, 0xc9, 0xe4, 
 0x61, 0x17, 0xc7, 0x29, 0xc5, 0xe9, 0x32, 0x2e, 0xfa, 0x14, 0xe5, 0x16, 
 0xb0, 0xcd, 0x24, 0x35, 0x00, 0xc7, 0xbb, 0x25, 0x0e, 0xbb, 0xd8, 0xd9, 
 0xfc, 0x12, 0xeb, 0xdb, 0x1e, 0xe1, 0xdc, 0xe0, 0x21, 0xde, 0x11, 0xd6, 
 0x29, 0x24, 0x07, 0xf0, 0x2d, 0x0e, 0x1e, 0x04, 0x0a, 0xde, 0xc9, 0x9d, 
 0xb2, 0xb6, 0xec, 0xc3, 0xd5, 0xa7, 0xa3, 0xe4, 0x9e, 0x22, 0xf5, 0x23, 
 0xcf, 0xcf, 0xa7, 0xeb, 0xbe, 0xe4, 0xe1, 0x1e, 0xce, 0xe3, 0xb0, 0xf6, 
 0xcd, 0xe6, 0x16, 0x00, 0xce, 0x29, 0x0d, 0xba, 0xb8, 0x04, 0x1b, 0x08, 
 0x16, 0x2c, 0xb6, 0xe8, 0xc7, 0xac, 0x0c, 0xe3, 0xa3, 0x22, 0x1e, 0xd9, 
 0xf2, 0xc3, 0xbb, 0xd5, 0xf4, 0xee, 0xac, 0x87, 0x94, 0xae, 0xee, 0xfd, 
 0xbf, 0xa9, 0xfc, 0xc7, 0xd1, 0x21, 0xbd, 0x8d, 0x08, 0x93, 0x98, 0x95, 
 0xb8, 0xa1, 0x1d, 0x0a, 0xa4, 0x0f, 0xae, 0xb6, 0xbc, 0x27, 0x26, 0xef, 
 0x09, 0x1f, 0xaa, 0x19, 0xaa, 0x04, 0xac, 0x92, 0xc3, 0x0e, 0x14, 0xb7, 
 0xef, 0xec, 0xb0, 0xa6, 0xd1, 0x11, 0xa5, 0xec, 0x19, 0xa4, 0x12, 0xa6, 
 0x29, 0x0a, 0xc5, 0xc2, 0xba, 0x94, 0x1f, 0x28, 0x1a, 0xc4, 0xd1, 0xbb, 
 0xd3, 0x2e, 0xc2, 0xef, 0x3c, 0x03, 0xaf, 0x20, 0xbc, 0xa8, 0x40, 0x50, 
 0x31, 0xd6, 0xd5, 0x4d, 0x20, 0xf4, 0x0a, 0x4e, 0x1f, 0xf0, 0xed, 0xfe, 
 0x33, 0x5d, 0x3c, 0x6d, 0xfa, 0x19, 0x5f, 0x10, 0x4c, 0x06, 0x01, 0x65, 
 0x76, 0x66, 0xeb, 0x10, 0xe5, 0x5d, 0xec, 0x3b, 0x7f, 0x2a, 0x6b, 0x48, 
 0x59, 0x09, 0x75, 0x16, 0xea, 0x76, 0xf2, 0x03, 0x34, 0x3f, 0x57, 0x4d, 
 0x5e, 0x6f, 0x6c, 0xf7, 0x72, 0x3b, 0x29, 0xe8, 0x3b, 0xe2, 0x30, 0x36, 
 0x01, 0x0e, 0x75, 0x0a, 0x22, 0x7b, 0x62, 0x62, 0x4c, 0x50, 0x3f, 0x40, 
 0x6c, 0x36, 0x68, 0x6e, 0xf6, 0x1b, 0x42, 0x4b, 0x62, 0x0c, 0x33, 0x07, 
 0x7d, 0x01, 0x1d, 0x27, 0x54, 0x40, 0xf6, 0xe9, 0x48, 0x5a, 0xed, 0x7d, 
 0x69, 0xfd, 0x2e, 0x7c, 0xfc, 0x3f, 0x2a, 0x5a, 0x5b, 0x20, 0x33, 0x7d, 
 0x01, 0x30, 0x1b, 0x28, 0x4f, 0x1e, 0xf1, 0x4c, 0x08, 0x31, 0x2a, 0x04, 
 0x47, 0x41, 0x00, 0xfe, 0x60, 0x18, 0x6c, 0x67, 0x7c, 0x65, 0x5b, 0x25, 
 0x01, 0x31, 0x4f, 0x1b, 0x11, 0xfe, 0x64, 0xf3, 0xe9, 0x44, 0x21, 0x0d, 
 0xfb, 0x53, 0xee, 0x75, 0x53, 0x73, 0x7f, 0x1d, 0x4b, 0x40, 0x45, 0xea, 
 0x66, 0x6a, 0x5d, 0x37, 0x06, 0x05, 0x5f, 0x0f, 0xf6, 0x05, 0x46, 0x32, 
 0xf5, 0x21, 0x70, 0xfa, 0x53, 0x02, 0xf0, 0x56, 0x0c, 0x26, 0x53, 0xde, 
 0x38, 0x4f, 0x53, 0x38, 0xed, 0xda, 0xe4, 0x53, 0xba, 0xff, 0x08, 0xf4, 
 0x19, 0xff, 0xc7, 0x5e, 0x54, 0x1d, 0x2d, 0xfd, 0xec, 0xf6, 0x5f, 0xfe, 
 0xd5, 0x13, 0x01, 0xed, 0x00, 0xb9, 0x04, 0x8b, 0xdc, 0x9c, 0xb5, 0xb2, 
 0xcb, 0xeb, 0xa7, 0xeb, 0xf7, 0xd0, 0xe2, 0xd8, 0xe5, 0x11, 0xc1, 0xa3, 
 0xe8, 0x99, 0xa0, 0xa2, 0x05, 0xa9, 0xcb, 0x8e, 0xb3, 0x9e, 0x12, 0xf1, 
 0x99, 0xd5, 0xf8, 0xa1, 0xf7, 0x1d, 0xbf, 0xc8, 0x09, 0x1e, 0x0f, 0xc0, 
 0xb2, 0x14, 0xed, 0x17, 0xc7, 0x8d, 0xef, 0x91, 0xb6, 0xe9, 0x20, 0xc6, 
 0x16, 0x08, 0xdc, 0xd4, 0x97, 0x17, 0xcd, 0xb3, 0xd4, 0xb2, 0x9d, 0xfc, 
 0x20, 0x9d, 0x9f, 0xed, 0xd9, 0x00, 0xf6, 0xab, 0xb1, 0xf8, 0xb1, 0xa4, 
 0x06, 0x18, 0xcf, 0xe5, 0x17, 0x9c, 0xfc, 0x14, 0xff, 0xd6, 0x1b, 0x9d, 
 0x0c, 0x19, 0x0f, 0x07, 0x00, 0x19, 0xc0, 0x1c, 0x0a, 0xe5, 0xdf, 0xd3, 
 0x0f, 0xff, 0xca, 0xe4, 0x10, 0x8f, 0x06, 0x93, 0xb3, 0x15, 0x9c, 0xc7, 
 0xee, 0xfa, 0xa4, 0xd6, 0x9b, 0xad, 0xb4, 0xc5, 0xca, 0x04, 0xdf, 0xce, 
 0xa3, 0x18, 0xe4, 0x05, 0xd7, 0xd9, 0xd7, 0xbd, 0xc0, 0xef, 0xbe, 0xec, 
 0x0c, 0xbe, 0xf7, 0xec, 0xae, 0xd5, 0x9e, 0xcd, 0x91, 0x13, 0x1a, 0xd9, 
 0xff, 0x11, 0x0e, 0x0a, 0x13, 0xde, 0xd8, 0x1f, 0xb0, 0xf1, 0xa3, 0x0e, 
 0xf9, 0x18, 0x19, 0x1b, 0xe1, 0xe5, 0x0f, 0xd0, 0xd3, 0x2b, 0x23, 0x14, 
 0xfc, 0xf4, 0x33, 0xd5, 0x09, 0xcc, 0xaf, 0xb8, 0xc5, 0xd9, 0xb9, 0xef, 
 0x0a, 0x0c, 0xc6, 0xd6, 0x2f, 0x0f, 0x29, 0xeb, 0xf0, 0x22, 0x3b, 0x0a, 
 0x3e, 0x4c, 0xdd, 0x04, 0x30, 0x1a, 0xfd, 0x4a, 0x4b, 0xe8, 0x55, 0x45, 
 0x09, 0x61, 0xe3, 0x5c, 0x31, 0x3f, 0x2e, 0x70, 0x55, 0x40, 0x2d, 0xed, 
 0x32, 0x7f, 0x30, 0x64, 0x74, 0x05, 0x47, 0x68, 0x74, 0xed, 0x19, 0x18, 
 0x4f, 0x1a, 0x14, 0x30, 0x63, 0xfc, 0x2c, 0x7c, 0x09, 0x57, 0x23, 0x6a, 
 0x1d, 0x36, 0x56, 0x48, 0x39, 0x15, 0x61, 0x13, 0x78, 0x23, 0x50, 0x38, 
 0x53, 0x3f, 0x0c, 0x5c, 0x5e, 0x5f, 0x06, 0x05, 0xed, 0x20, 0x31, 0xf7, 
 0x59, 0x34, 0x5a, 0xf9, 0x53, 0x3c, 0x48, 0xeb, 0x2c, 0x30, 0xf0, 0x16, 
 0x0e, 0x0c, 0x31, 0xf1, 0x72, 0xfd, 0x6e, 0x02, 0x2c, 0x49, 0x0e, 0x6d, 
 0x1f, 0xef, 0x4e, 0xef, 0x3e, 0xf5, 0x33, 0x68, 0x26, 0x03, 0x66, 0x32, 
 0xf8, 0x04, 0x21, 0x26, 0x73, 0x6d, 0x71, 0x57, 0x0b, 0x4c, 0x5d, 0x10, 
 0x12, 0x2b, 0x66, 0x06, 0x24, 0xfa, 0xe2, 0x1b, 0x0e, 0x2f, 0xf4, 0x34, 
 0xfc, 0x28, 0x6e, 0x36, 0x72, 0x0e, 0x3c, 0x1b, 0xc3, 0x3e, 0xfa, 0x39, 
 0xed, 0x3f, 0x39, 0x6a, 0xf0, 0xcd, 0x19, 0x26, 0x35, 0x1a, 0x3d, 0x41, 
 0x75, 0x60, 0x38, 0xfe, 0x57, 0x09, 0x4e, 0x01, 0x53, 0x57, 0x48, 0xdb, 
 0xfc, 0xe6, 0x0b, 0x3b, 0xe5, 0xfa, 0xac, 0x08, 0x39, 0xd3, 0x18, 0x28, 
 0x34, 0x24, 0xee, 0x45, 0x14, 0x1c, 0x52, 0xdc, 0x2d, 0x23, 0x0b, 0x5b, 
 0xff, 0x23, 0x29, 0x52, 0x12, 0x50, 0x23, 0xf0, 0x04, 0xea, 0x3d, 0x5d, 
 0x3f, 0xe1, 0x48, 0x1c, 0xe1, 0xed, 0x26, 0x42, 0xe8, 0x32, 0x2f, 0xec, 
 0x1d, 0x07, 0x12, 0x0b, 0x02, 0x12, 0x33, 0x7f, 0x36, 0x24, 0x27, 0x2f, 
 0x26, 0x52, 0x2c, 0x20, 0xfa, 0x2b, 0x41, 0x6b, 0x2f, 0x2c, 0xf9, 0x06, 
 0x02, 0x09, 0xc2, 0xf8, 0xbf, 0xe8, 0x3b, 0xa4, 0x0e, 0x20, 0x14, 0x0a, 
 0x37, 0x9d, 0xe7, 0xaa, 0xbe, 0xe8, 0x28, 0xad, 0x1b, 0xb8, 0xff, 0x09, 
 0xc3, 0xe7, 0x0b, 0xef, 0xd4, 0xf0, 0xdd, 0xb2, 0xd9, 0xfa, 0xfd, 0xfc, 
 0x22, 0xe2, 0xd9, 0xcc, 0xb1, 0x06, 0xdb, 0x1a, 0x2c, 0xf1, 0xdf, 0x19, 
 0x3e, 0xde, 0xf7, 0x16, 0xfd, 0xbc, 0x18, 0xda, 0xbf, 0x08, 0xdc, 0xb3, 
 0xf9, 0xf1, 0x96, 0xf9, 0xd1, 0xc3, 0xc7, 0x0b, 0xad, 0xd8, 0xd2, 0x39, 
 0xdd, 0xe7, 0xd4, 0xc8, 0xdd, 0x2b, 0xe6, 0x1e, 0xc5, 0xf6, 0xe1, 0x27, 
 0xc5, 0x1b, 0x14, 0xcb, 0x31, 0x1e, 0x14, 0xe4, 0xcc, 0xd9, 0x33, 0xcd, 
 0x16, 0xf6, 0xd6, 0xe0, 0x49, 0x1c, 0x0f, 0x08, 0x23, 0x0b, 0xc9, 0xe1, 
 0x3b, 0xcb, 0x21, 0x1a, 0xc4, 0xdb, 0xf0, 0xe6, 0xfa, 0xd0, 0xef, 0xe0, 
 0xd1, 0x9a, 0xe0, 0xac, 0xbd, 0xdc, 0x11, 0xdd, 0xaa, 0xdf, 0x01, 0xad, 
 0xb3, 0xee, 0xe1, 0xb6, 0xf6, 0xe7, 0xc3, 0x9d, 0x00, 0xe1, 0xba, 0xf1, 
 0x87, 0xcb, 0xfe, 0x08, 0x86, 0xdf, 0x92, 0xce, 0xff, 0xb1, 0xd0, 0xda, 
 0xd2, 0xdb, 0xed, 0x0d, 0x09, 0xa2, 0xc2, 0xfa, 0x09, 0xa4, 0xc2, 0xca, 
 0xf5, 0xa8, 0xb4, 0xf6, 0xb9, 0xef, 0xc5, 0xb0, 0xab, 0xa7, 0xee, 0xb2, 
 0xff, 0xb2, 0x01, 0x05, 0xbf, 0xb6, 0xae, 0x02, 0xef, 0x00, 0xac, 0xee, 
 0xba, 0xdb, 0xbe, 0xf1, 0xe7, 0xcb, 0x99, 0xdd, 0xe0, 0x0b, 0xae, 0xda, 
 0xa0, 0xd3, 0x08, 0x07, 0xe1, 0xe0, 0xd8, 0xe1, 0x45, 0xab, 0xfb, 0x22, 
 0xdb, 0xfd, 0xbc, 0xc6, 0xdb, 0x1c, 0xe7, 0xb9, 0x9a, 0x96, 0xc2, 0xbf, 
 0xad, 0xc9, 0xba, 0x1d, 0xf8, 0xa6, 0xa9, 0xef, 0xc8, 0x08, 0xd2, 0xcc, 
 0xab, 0xde, 0x94, 0xbd, 0xf8, 0xed, 0xa4, 0xf2, 0x01, 0x8f, 0xa7, 0xdd, 
 0xad, 0xc8, 0x02, 0xde, 0xd7, 0xad, 0xe9, 0xc4, 0xd8, 0xa5, 0x9c, 0xa0, 
 0xea, 0x13, 0xc5, 0xdf, 0x18, 0xf5, 0xcf, 0xab, 0xfd, 0xb1, 0xfa, 0xda, 
 0x04, 0x16, 0xf7, 0xdd, 0xca, 0x02, 0xef, 0xeb, 0xf4, 0x10, 0xd3, 0x19, 
 0xb9, 0x1f, 0xb6, 0xc0, 0x08, 0xfd, 0x08, 0xe7, 0x0f, 0xc9, 0x0e, 0xc1, 
 0xd2, 0xd5, 0xd2, 0x97, 0x20, 0xc8, 0xaf, 0xb2, 0xae, 0xcc, 0x01, 0xef, 
 0xbc, 0xb7, 0x15, 0xb5, 0x12, 0x17, 0xe1, 0x1b, 0x22, 0xc9, 0xe1, 0xde, 
 0xfb, 0x03, 0x39, 0x95, 0x21, 0x60, 0xdb, 0xdb, 0x32, 0x6f, 0x5f, 0x29, 
 0xf4, 0x1d, 0xde, 0xe8, 0x02, 0x54, 0xb8, 0xda, 0x15, 0xf1, 0x26, 0xef, 
 0x4f, 0x00, 0xed, 0x31, 0x44, 0xc7, 0xef, 0xe2, 0x1c, 0x35, 0xd1, 0xd2, 
 0x9d, 0x4d, 0xde, 0x97, 0x3c, 0xdd, 0x14, 0xfb, 0xbc, 0xec, 0xb9, 0xd9, 
 0x8b, 0x2f, 0xfe, 0xb1, 0x23, 0x9d, 0xed, 0xc2, 0x15, 0x97, 0x12, 0x03, 
 0xf8, 0xc6, 0xf2, 0x84, 0x0e, 0xba, 0x21, 0x45, 0x4b, 0xeb, 0x4d, 0x46, 
 0xbd, 0x00, 0xe5, 0xdb, 0xd2, 0x36, 0xc8, 0xdf, 0x0a, 0x14, 0x2a, 0x19, 
 0xe3, 0x2a, 0x41, 0xa7, 0xfc, 0x29, 0xfe, 0x10, 0x0f, 0xc3, 0xe8, 0xef, 
 0xd5, 0x40, 0x1e, 0xaf, 0x33, 0xb1, 0xbf, 0xbd, 0xd9, 0x0d, 0x1b, 0x05, 
 0xb0, 0xfc, 0xec, 0x81, 0x1d, 0x15, 0xd1, 0xe5, 0xd0, 0xe3, 0x29, 0x46, 
 0x8e, 0x3e, 0x23, 0x15, 0x34, 0xff, 0xed, 0xf2, 0xa7, 0xbd, 0xf0, 0x44, 
 0x84, 0xda, 0xb3, 0xaf, 0xfb, 0xe2, 0xc2, 0xe5, 0x02, 0xb1, 0x1f, 0x07, 
 0xa8, 0xdf, 0x00, 0xa7, 0x0c, 0xbc, 0xda, 0xc7, 0xd4, 0x0c, 0xbb, 0x3b, 
 0xd9, 0x0c, 0x21, 0xfd, 0xb7, 0xcf, 0xb0, 0x40, 0xcd, 0xe1, 0x4f, 0xda, 
 0x21, 0x30, 0xb2, 0xfa, 0xfe, 0xd5, 0xf7, 0x31, 0x2d, 0x02, 0xe4, 0xf7, 
 0xd1, 0x6c, 0xd6, 0x5a, 0x4c, 0xd1, 0x5c, 0x15, 0xe4, 0x15, 0xce, 0x03, 
 0xcb, 0x5d, 0x3c, 0x0f, 0x58, 0xbb, 0x0c, 0x4a, 0xf1, 0x20, 0xee, 0x30, 
 0x37, 0x25, 0x42, 0xf0, 0x54, 0xca, 0x44, 0xf8, 0x01, 0xd3, 0x1e, 0x3d, 
 0xdf, 0x38, 0x0a, 0xf8, 0x21, 0x36, 0x7c, 0x0c, 0x7a, 0x08, 0x65, 0x5a, 
 0x39, 0x4b, 0x3c, 0xd5, 0x01, 0x3b, 0x5e, 0x53, 0x36, 0x1a, 0x1d, 0x28, 
 0x22, 0xf9, 0x1f, 0x53, 0x23, 0xf6, 0x02, 0xf3, 0x67, 0x15, 0x0a, 0x26, 
 0x0d, 0x26, 0xb0, 0x6e, 0x67, 0x57, 0xe7, 0x1c, 0x24, 0xf6, 0x3d, 0x4d, 
 0xd5, 0xf2, 0xb2, 0xff, 0x40, 0xc4, 0x58, 0x51, 0xdc, 0x3d, 0x1e, 0xe7, 
 0x16, 0x34, 0x5c, 0x07, 0xf9, 0x15, 0xcc, 0xd3, 0xd1, 0xdc, 0xe0, 0xe2, 
 0x69, 0x3c, 0xee, 0x41, 0xef, 0x47, 0x26, 0xe1, 0x5a, 0x22, 0x39, 0x57, 
 0x4d, 0x63, 0xde, 0x30, 0x09, 0x38, 0x69, 0xe2, 0xf5, 0x17, 0x5e, 0x11, 
 0x4b, 0xfd, 0x09, 0xef, 0x3a, 0x05, 0x2a, 0x28, 0xd5, 0xfe, 0x5c, 0xd7, 
 0x37, 0x11, 0x2c, 0x22, 0x31, 0x54, 0x0a, 0x66, 0xea, 0xd3, 0xef, 0xaf, 
 0xf7, 0x38, 0xe9, 0xe1, 0x2e, 0x0d, 0x56, 0x06, 0xca, 0x64, 0xdc, 0x2b, 
 0xe4, 0x59, 0x38, 0xf1, 0x28, 0x35, 0x6f, 0x10, 0x10, 0xff, 0xb1, 0x10, 
 0x65, 0xd9, 0xf8, 0x19, 0xb6, 0x22, 0x03, 0xc1, 0x05, 0xe4, 0xbe, 0x1d, 
 0x1a, 0xc0, 0x50, 0x2e, 0x2d, 0x42, 0x53, 0x29, 0xbf, 0x1d, 0xcb, 0x0a, 
 0x9c, 0xac, 0x34, 0xc5, 0xa0, 0xf6, 0xff, 0xff, 0xc2, 0xff, 0xff, 0xff, 
 0x04, 0x00, 0x00, 0x00, 0x04, 0x00, 0x00, 0x00, 0x4c, 0x00, 0x00, 0x00, 
 0xd2, 0xff, 0xff, 0xff, 0x04, 0x00, 0x00, 0x00, 0x20, 0x00, 0x00, 0x00, 
 0xdd, 0x00, 0x00, 0x00, 0x3d, 0xff, 0xff, 0xff, 0xfe, 0xfd, 0xff, 0xff, 
 0x1c, 0x00, 0x00, 0x00, 0x74, 0x04, 0x00, 0x00, 0x69, 0x03, 0x00, 0x00, 
 0xcf, 0x01, 0x00, 0x00, 0xe5, 0x02, 0x00, 0x00, 0x00, 0x00, 0x06, 0x00, 
 0x08, 0x00, 0x04, 0x00, 0x06, 0x00, 0x00, 0x00, 0x04, 0x00, 0x00, 0x00, 
 0x08, 0x00, 0x00, 0x00, 0xff, 0xff, 0xff, 0xff, 0xe8, 0x01, 0x00, 0x00, 
 0xfc, 0xf6, 0xff, 0xff, 0x00, 0xf7, 0xff, 0xff, 0x0f, 0x00, 0x00, 0x00, 
 0x4d, 0x4c, 0x49, 0x52, 0x20, 0x43, 0x6f, 0x6e, 0x76, 0x65, 0x72, 0x74, 
 0x65, 0x64, 0x2e, 0x00, 0x01, 0x00, 0x00, 0x00, 0x14, 0x00, 0x00, 0x00, 
 0x00, 0x00, 0x0e, 0x00, 0x18, 0x00, 0x14, 0x00, 0x10, 0x00, 0x0c, 0x00, 
 0x08, 0x00, 0x04, 0x00, 0x0e, 0x00, 0x00, 0x00, 0x14, 0x00, 0x00, 0x00, 
 0x1c, 0x00, 0x00, 0x00, 0x74, 0x01, 0x00, 0x00, 0x78, 0x01, 0x00, 0x00, 
 0x7c, 0x01, 0x00, 0x00, 0x04, 0x00, 0x00, 0x00, 0x6d, 0x61, 0x69, 0x6e, 
 0x00, 0x00, 0x00, 0x00, 0x05, 0x00, 0x00, 0x00, 0x08, 0x01, 0x00, 0x00, 
 0xa4, 0x00, 0x00, 0x00, 0x6c, 0x00, 0x00, 0x00, 0x28, 0x00, 0x00, 0x00, 
 0x04, 0x00, 0x00, 0x00, 0xaa, 0xff, 0xff, 0xff, 0x0c, 0x00, 0x00, 0x00, 
 0x10, 0x00, 0x00, 0x00, 0x05, 0x00, 0x00, 0x00, 0x01, 0x00, 0x00, 0x00, 
 0x0a, 0x00, 0x00, 0x00, 0x01, 0x00, 0x00, 0x00, 0x09, 0x00, 0x00, 0x00, 
 0x3a, 0xff, 0xff, 0xff, 0x14, 0x00, 0x00, 0x00, 0x00, 0x00, 0x00, 0x08, 
 0x10, 0x00, 0x00, 0x00, 0x14, 0x00, 0x00, 0x00, 0x04, 0x00, 0x00, 0x00, 
 0xa4, 0xf7, 0xff, 0xff, 0x01, 0x00, 0x00, 0x00, 0x09, 0x00, 0x00, 0x00, 
 0x03, 0x00, 0x00, 0x00, 0x07, 0x00, 0x00, 0x00, 0x08, 0x00, 0x00, 0x00, 
 0x02, 0x00, 0x00, 0x00, 0x00, 0x00, 0x0a, 0x00, 0x10, 0x00, 0x0c, 0x00, 
 0x08, 0x00, 0x04, 0x00, 0x0a, 0x00, 0x00, 0x00, 0x0c, 0x00, 0x00, 0x00, 
 0x10, 0x00, 0x00, 0x00, 0x03, 0x00, 0x00, 0x00, 0x01, 0x00, 0x00, 0x00, 
 0x07, 0x00, 0x00, 0x00, 0x02, 0x00, 0x00, 0x00, 0x06, 0x00, 0x00, 0x00, 
 0x00, 0x00, 0x00, 0x00, 0x00, 0x00, 0x0e, 0x00, 0x1a, 0x00, 0x14, 0x00, 
 0x10, 0x00, 0x0c, 0x00, 0x0b, 0x00, 0x04, 0x00, 0x0e, 0x00, 0x00, 0x00, 
 0x24, 0x00, 0x00, 0x00, 0x00, 0x00, 0x00, 0x05, 0x34, 0x00, 0x00, 0x00, 
 0x38, 0x00, 0x00, 0x00, 0x02, 0x00, 0x00, 0x00, 0x00, 0x00, 0x0e, 0x00, 
 0x18, 0x00, 0x17, 0x00, 0x10, 0x00, 0x0c, 0x00, 0x08, 0x00, 0x04, 0x00, 
 0x0e, 0x00, 0x00, 0x00, 0x01, 0x00, 0x00, 0x00, 0x02, 0x00, 0x00, 0x00, 
 0x01, 0x00, 0x00, 0x00, 0x02, 0x00, 0x00, 0x00, 0x00, 0x00, 0x00, 0x01, 
 0x01, 0x00, 0x00, 0x00, 0x06, 0x00, 0x00, 0x00, 0x01, 0x00, 0x00, 0x00, 
 0x05, 0x00, 0x00, 0x00, 0x00, 0x00, 0x0e, 0x00, 0x18, 0x00, 0x14, 0x00, 
 0x10, 0x00, 0x0c, 0x00, 0x0b, 0x00, 0x04, 0x00, 0x0e, 0x00, 0x00, 0x00, 
 0x20, 0x00, 0x00, 0x00, 0x00, 0x00, 0x00, 0x01, 0x2c, 0x00, 0x00, 0x00, 
 0x30, 0x00, 0x00, 0x00, 0x01, 0x00, 0x00, 0x00, 0x0c, 0x00, 0x14, 0x00, 
 0x13, 0x00, 0x0c, 0x00, 0x08, 0x00, 0x07, 0x00, 0x0c, 0x00, 0x00, 0x00, 
 0x00, 0x00, 0x00, 0x01, 0x01, 0x00, 0x00, 0x00, 0x01, 0x00, 0x00, 0x00, 
 0x00, 0x00, 0x00, 0x01, 0x01, 0x00, 0x00, 0x00, 0x05, 0x00, 0x00, 0x00, 
 0x03, 0x00, 0x00, 0x00, 0x03, 0x00, 0x00, 0x00, 0x04, 0x00, 0x00, 0x00, 
 0x01, 0x00, 0x00, 0x00, 0x01, 0x00, 0x00, 0x00, 0x0a, 0x00, 0x00, 0x00, 
 0x01, 0x00, 0x00, 0x00, 0x03, 0x00, 0x00, 0x00, 0x0b, 0x00, 0x00, 0x00, 
 0x20, 0x07, 0x00, 0x00, 0x44, 0x06, 0x00, 0x00, 0xe4, 0x05, 0x00, 0x00, 
 0x28, 0x05, 0x00, 0x00, 0xfc, 0x03, 0x00, 0x00, 0x00, 0x03, 0x00, 0x00, 
 0x64, 0x02, 0x00, 0x00, 0xe0, 0x01, 0x00, 0x00, 0x38, 0x01, 0x00, 0x00, 
 0x88, 0x00, 0x00, 0x00, 0x04, 0x00, 0x00, 0x00, 0x0e, 0xfb, 0xff, 0xff, 
 0x00, 0x00, 0x00, 0x01, 0x18, 0x00, 0x00, 0x00, 0x20, 0x00, 0x00, 0x00, 
 0x40, 0x00, 0x00, 0x00, 0x0c, 0x00, 0x00, 0x00, 0x00, 0x00, 0x00, 0x09, 
 0x58, 0x00, 0x00, 0x00, 0x02, 0x00, 0x00, 0x00, 0xff, 0xff, 0xff, 0xff, 
 0x01, 0x00, 0x00, 0x00, 0xf4, 0xf9, 0xff, 0xff, 0x08, 0x00, 0x00, 0x00, 
 0x14, 0x00, 0x00, 0x00, 0x01, 0x00, 0x00, 0x00, 0x80, 0xff, 0xff, 0xff, 
 0xff, 0xff, 0xff, 0xff, 0x00, 0x00, 0x00, 0x00, 0x01, 0x00, 0x00, 0x00, 
 0x00, 0x00, 0x80, 0x3b, 0x1e, 0x00, 0x00, 0x00, 0x73, 0x65, 0x71, 0x75, 
 0x65, 0x6e, 0x74, 0x69, 0x61, 0x6c, 0x2f, 0x71, 0x75, 0x61, 0x6e, 0x74, 
 0x5f, 0x64, 0x65, 0x6e, 0x73, 0x65, 0x2f, 0x53, 0x69, 0x67, 0x6d, 0x6f, 
 0x69, 0x64, 0x00, 0x00, 0x02, 0x00, 0x00, 0x00, 0x01, 0x00, 0x00, 0x00, 
 0x01, 0x00, 0x00, 0x00, 0x8e, 0xfb, 0xff, 0xff, 0x00, 0x00, 0x00, 0x01, 
 0x18, 0x00, 0x00, 0x00, 0x20, 0x00, 0x00, 0x00, 0x3c, 0x00, 0x00, 0x00, 
 0x0b, 0x00, 0x00, 0x00, 0x00, 0x00, 0x00, 0x09, 0x74, 0x00, 0x00, 0x00, 
 0x02, 0x00, 0x00, 0x00, 0xff, 0xff, 0xff, 0xff, 0x01, 0x00, 0x00, 0x00, 
 0x74, 0xfa, 0xff, 0xff, 0x08, 0x00, 0x00, 0x00, 0x10, 0x00, 0x00, 0x00, 
 0x01, 0x00, 0x00, 0x00, 0xff, 0xff, 0xff, 0xff, 0xff, 0xff, 0xff, 0xff, 
 0x01, 0x00, 0x00, 0x00, 0x43, 0x09, 0x41, 0x3d, 0x3c, 0x00, 0x00, 0x00, 
 0x73, 0x65, 0x71, 0x75, 0x65, 0x6e, 0x74, 0x69, 0x61, 0x6c, 0x2f, 0x71, 
 0x75, 0x61, 0x6e, 0x74, 0x5f, 0x64, 0x65, 0x6e, 0x73, 0x65, 0x2f, 0x4d, 
 0x61, 0x74, 0x4d, 0x75, 0x6c, 0x3b, 0x73, 0x65, 0x71, 0x75, 0x65, 0x6e, 
 0x74, 0x69, 0x61, 0x6c, 0x2f, 0x71, 0x75, 0x61, 0x6e, 0x74, 0x5f, 0x64, 
 0x65, 0x6e, 0x73, 0x65, 0x2f, 0x42, 0x69, 0x61, 0x73, 0x41, 0x64, 0x64, 
 0x00, 0x00, 0x00, 0x00, 0x02, 0x00, 0x00, 0x00, 0x01, 0x00, 0x00, 0x00, 
 0x01, 0x00, 0x00, 0x00, 0x00, 0x00, 0x0e, 0x00, 0x18, 0x00, 0x14, 0x00, 
 0x13, 0x00, 0x0c, 0x00, 0x08, 0x00, 0x04, 0x00, 0x0e, 0x00, 0x00, 0x00, 
 0x14, 0x00, 0x00, 0x00, 0x30, 0x00, 0x00, 0x00, 0x0a, 0x00, 0x00, 0x00, 
 0x00, 0x00, 0x00, 0x09, 0x84, 0x00, 0x00, 0x00, 0x0c, 0xfb, 0xff, 0xff, 
 0x08, 0x00, 0x00, 0x00, 0x10, 0x00, 0x00, 0x00, 0x01, 0x00, 0x00, 0x00, 
 0x00, 0x00, 0x00, 0x00, 0x00, 0x00, 0x00, 0x00, 0x01, 0x00, 0x00, 0x00, 
 0xda, 0x84, 0x9c, 0x3a, 0x5b, 0x00, 0x00, 0x00, 0x73, 0x65, 0x71, 0x75, 
 0x65, 0x6e, 0x74, 0x69, 0x61, 0x6c, 0x2f, 0x71, 0x75, 0x61, 0x6e, 0x74, 
 0x5f, 0x64, 0x65, 0x6e, 0x73, 0x65, 0x2f, 0x4d, 0x61, 0x74, 0x4d, 0x75, 
 0x6c, 0x3b, 0x73, 0x65, 0x71, 0x75, 0x65, 0x6e, 0x74, 0x69, 0x61, 0x6c, 
 0x2f, 0x71, 0x75, 0x61, 0x6e, 0x74, 0x5f, 0x64, 0x65, 0x6e, 0x73, 0x65, 
 0x2f, 0x4c, 0x61, 0x73, 0x74, 0x56, 0x61, 0x6c, 0x75, 0x65, 0x51, 0x75, 
 0x61, 0x6e, 0x74, 0x2f, 0x46, 0x61, 0x6b, 0x65, 0x51, 0x75, 0x61, 0x6e, 
 0x74, 0x57, 0x69, 0x74, 0x68, 0x4d, 0x69, 0x6e, 0x4d, 0x61, 0x78, 0x56, 
 0x61, 0x72, 0x73, 0x00, 0x02, 0x00, 0x00, 0x00, 0x01, 0x00, 0x00, 0x00, 
 0xe8, 0x01, 0x00, 0x00, 0xde, 0xfc, 0xff, 0xff, 0x00, 0x00, 0x00, 0x01, 
 0x18, 0x00, 0x00, 0x00, 0x20, 0x00, 0x00, 0x00, 0x3c, 0x00, 0x00, 0x00, 
 0x09, 0x00, 0x00, 0x00, 0x00, 0x00, 0x00, 0x09, 0x58, 0x00, 0x00, 0x00, 
 0x02, 0x00, 0x00, 0x00, 0xff, 0xff, 0xff, 0xff, 0xe8, 0x01, 0x00, 0x00, 
 0xc4, 0xfb, 0xff, 0xff, 0x08, 0x00, 0x00, 0x00, 0x10, 0x00, 0x00, 0x00, 
 0x01, 0x00, 0x00, 0x00, 0xfb, 0xff, 0xff, 0xff, 0xff, 0xff, 0xff, 0xff, 
 0x01, 0x00, 0x00, 0x00, 0x4d, 0x91, 0x3e, 0x3d, 0x20, 0x00, 0x00, 0x00, 
 0x73, 0x65, 0x71, 0x75, 0x65, 0x6e, 0x74, 0x69, 0x61, 0x6c, 0x2f, 0x71, 
 0x75, 0x61, 0x6e, 0x74, 0x5f, 0x66, 0x6c, 0x61, 0x74, 0x74, 0x65, 0x6e, 
 0x2f, 0x52, 0x65, 0x73, 0x68, 0x61, 0x70, 0x65, 0x00, 0x00, 0x00, 0x00, 
 0x02, 0x00, 0x00, 0x00, 0x01, 0x00, 0x00, 0x00, 0xe8, 0x01, 0x00, 0x00, 
 0x5e, 0xfd, 0xff, 0xff, 0x00, 0x00, 0x00, 0x01, 0x18, 0x00, 0x00, 0x00, 
 0x28, 0x00, 0x00, 0x00, 0x48, 0x00, 0x00, 0x00, 0x08, 0x00, 0x00, 0x00, 
 0x00, 0x00, 0x00, 0x09, 0x68, 0x00, 0x00, 0x00, 0x04, 0x00, 0x00, 0x00, 
 0xff, 0xff, 0xff, 0xff, 0x01, 0x00, 0x00, 0x00, 0x3d, 0x00, 0x00, 0x00, 
 0x08, 0x00, 0x00, 0x00, 0x4c, 0xfc, 0xff, 0xff, 0x08, 0x00, 0x00, 0x00, 
 0x14, 0x00, 0x00, 0x00, 0x01, 0x00, 0x00, 0x00, 0xfb, 0xff, 0xff, 0xff, 
 0xff, 0xff, 0xff, 0xff, 0x00, 0x00, 0x00, 0x00, 0x01, 0x00, 0x00, 0x00, 
 0x4d, 0x91, 0x3e, 0x3d, 0x26, 0x00, 0x00, 0x00, 0x73, 0x65, 0x71, 0x75, 
 0x65, 0x6e, 0x74, 0x69, 0x61, 0x6c, 0x2f, 0x71, 0x75, 0x61, 0x6e, 0x74, 
 0x5f, 0x6d, 0x61, 0x78, 0x5f, 0x70, 0x6f, 0x6f, 0x6c, 0x69, 0x6e, 0x67, 
 0x32, 0x64, 0x2f, 0x4d, 0x61, 0x78, 0x50, 0x6f, 0x6f, 0x6c, 0x00, 0x00, 
 0x04, 0x00, 0x00, 0x00, 0x01, 0x00, 0x00, 0x00, 0x01, 0x00, 0x00, 0x00, 
 0x3d, 0x00, 0x00, 0x00, 0x08, 0x00, 0x00, 0x00, 0xf6, 0xfd, 0xff, 0xff, 
 0x00, 0x00, 0x00, 0x01, 0x18, 0x00, 0x00, 0x00, 0x28, 0x00, 0x00, 0x00, 
 0x44, 0x00, 0x00, 0x00, 0x07, 0x00, 0x00, 0x00, 0x00, 0x00, 0x00, 0x09, 
 0xc8, 0x00, 0x00, 0x00, 0x04, 0x00, 0x00, 0x00, 0xff, 0xff, 0xff, 0xff, 
 0x01, 0x00, 0x00, 0x00, 0x7a, 0x00, 0x00, 0x00, 0x08, 0x00, 0x00, 0x00, 
 0xe4, 0xfc, 0xff, 0xff, 0x08, 0x00, 0x00, 0x00, 0x10, 0x00, 0x00, 0x00, 
 0x01, 0x00, 0x00, 0x00, 0xfb, 0xff, 0xff, 0xff, 0xff, 0xff, 0xff, 0xff, 
 0x01, 0x00, 0x00, 0x00, 0x4d, 0x91, 0x3e, 0x3d, 0x8a, 0x00, 0x00, 0x00, 
 0x73, 0x65, 0x71, 0x75, 0x65, 0x6e, 0x74, 0x69, 0x61, 0x6c, 0x2f, 0x71, 
 0x75, 0x61, 0x6e, 0x74, 0x5f, 0x63, 0x6f, 0x6e, 0x76, 0x32, 0x64, 0x2f, 
 0x52, 0x65, 0x6c, 0x75, 0x3b, 0x73, 0x65, 0x71, 0x75, 0x65, 0x6e, 0x74, 
 0x69, 0x61, 0x6c, 0x2f, 0x71, 0x75, 0x61, 0x6e, 0x74, 0x5f, 0x63, 0x6f, 
 0x6e, 0x76, 0x32, 0x64, 0x2f, 0x42, 0x69, 0x61, 0x73, 0x41, 0x64, 0x64, 
 0x3b, 0x73, 0x65, 0x71, 0x75, 0x65, 0x6e, 0x74, 0x69, 0x61, 0x6c, 0x2f, 
 0x71, 0x75, 0x61, 0x6e, 0x74, 0x5f, 0x63, 0x6f, 0x6e, 0x76, 0x32, 0x64, 
 0x2f, 0x43, 0x6f, 0x6e, 0x76, 0x32, 0x44, 0x3b, 0x73, 0x65, 0x71, 0x75, 
 0x65, 0x6e, 0x74, 0x69, 0x61, 0x6c, 0x2f, 0x71, 0x75, 0x61, 0x6e, 0x74, 
 0x5f, 0x63, 0x6f, 0x6e, 0x76, 0x32, 0x64, 0x2f, 0x42, 0x69, 0x61, 0x73, 
 0x41, 0x64, 0x64, 0x2f, 0x52, 0x65, 0x61, 0x64, 0x56, 0x61, 0x72, 0x69, 
 0x61, 0x62, 0x6c, 0x65, 0x4f, 0x70, 0x00, 0x00, 0x04, 0x00, 0x00, 0x00, 
 0x01, 0x00, 0x00, 0x00, 0x01, 0x00, 0x00, 0x00, 0x7a, 0x00, 0x00, 0x00, 
 0x08, 0x00, 0x00, 0x00, 0x02, 0xfd, 0xff, 0xff, 0x00, 0x00, 0x00, 0x01, 
 0x14, 0x00, 0x00, 0x00, 0x84, 0x00, 0x00, 0x00, 0x06, 0x00, 0x00, 0x00, 
 0x00, 0x00, 0x00, 0x09, 0xe4, 0x00, 0x00, 0x00, 0xc4, 0xfd, 0xff, 0xff, 
 0x08, 0x00, 0x00, 0x00, 0x48, 0x00, 0x00, 0x00, 0x08, 0x00, 0x00, 0x00, 
 0x00, 0x00, 0x00, 0x00, 0x00, 0x00, 0x00, 0x00, 0x00, 0x00, 0x00, 0x00, 
 0x00, 0x00, 0x00, 0x00, 0x00, 0x00, 0x00, 0x00, 0x00, 0x00, 0x00, 0x00, 
 0x00, 0x00, 0x00, 0x00, 0x00, 0x00, 0x00, 0x00, 0x00, 0x00, 0x00, 0x00, 
 0x00, 0x00, 0x00, 0x00, 0x00, 0x00, 0x00, 0x00, 0x00, 0x00, 0x00, 0x00, 
 0x00, 0x00, 0x00, 0x00, 0x00, 0x00, 0x00, 0x00, 0x00, 0x00, 0x00, 0x00, 
 0x00, 0x00, 0x00, 0x00, 0x08, 0x00, 0x00, 0x00, 0xc7, 0x42, 0x19, 0x3a, 
 0xac, 0xe2, 0x25, 0x3a, 0x94, 0xe6, 0xf0, 0x39, 0x39, 0x7c, 0xc2, 0x39, 
 0xfc, 0x95, 0x09, 0x3a, 0x77, 0x9e, 0x16, 0x3a, 0x1c, 0x99, 0x28, 0x3a, 
 0xa8, 0x4a, 0x00, 0x3a, 0x67, 0x00, 0x00, 0x00, 0x73, 0x65, 0x71, 0x75, 
 0x65, 0x6e, 0x74, 0x69, 0x61, 0x6c, 0x2f, 0x71, 0x75, 0x61, 0x6e, 0x74, 
 0x5f, 0x63, 0x6f, 0x6e, 0x76, 0x32, 0x64, 0x2f, 0x43, 0x6f, 0x6e, 0x76, 
 0x32, 0x44, 0x3b, 0x73, 0x65, 0x71, 0x75, 0x65, 0x6e, 0x74, 0x69, 0x61, 
 0x6c, 0x2f, 0x71, 0x75, 0x61, 0x6e, 0x74, 0x5f, 0x63, 0x6f, 0x6e, 0x76, 
 0x32, 0x64, 0x2f, 0x4c, 0x61, 0x73, 0x74, 0x56, 0x61, 0x6c, 0x75, 0x65, 
 0x51, 0x75, 0x61, 0x6e, 0x74, 0x2f, 0x46, 0x61, 0x6b, 0x65, 0x51, 0x75, 
 0x61, 0x6e, 0x74, 0x57, 0x69, 0x74, 0x68, 0x4d, 0x69, 0x6e, 0x4d, 0x61, 
 0x78, 0x56, 0x61, 0x72, 0x73, 0x50, 0x65, 0x72, 0x43, 0x68, 0x61, 0x6e, 
 0x6e, 0x65, 0x6c, 0x00, 0x04, 0x00, 0x00, 0x00, 0x08, 0x00, 0x00, 0x00, 
 0x81, 0x00, 0x00, 0x00, 0x03, 0x00, 0x00, 0x00, 0x01, 0x00, 0x00, 0x00, 
 0x00, 0x00, 0x16, 0x00, 0x20, 0x00, 0x1c, 0x00, 0x1b, 0x00, 0x14, 0x00, 
 0x10, 0x00, 0x0c, 0x00, 0x00, 0x00, 0x00, 0x00, 0x08, 0x00, 0x07, 0x00, 
 0x16, 0x00, 0x00, 0x00, 0x00, 0x00, 0x00, 0x01, 0x18, 0x00, 0x00, 0x00, 
 0x28, 0x00, 0x00, 0x00, 0x48, 0x00, 0x00, 0x00, 0x05, 0x00, 0x00, 0x00, 
 0x00, 0x00, 0x00, 0x09, 0x88, 0x00, 0x00, 0x00, 0x04, 0x00, 0x00, 0x00, 
 0xff, 0xff, 0xff, 0xff, 0x81, 0x00, 0x00, 0x00, 0x7c, 0x00, 0x00, 0x00, 
 0x01, 0x00, 0x00, 0x00, 0x04, 0xff, 0xff, 0xff, 0x08, 0x00, 0x00, 0x00, 
 0x14, 0x00, 0x00, 0x00, 0x01, 0x00, 0x00, 0x00, 0x87, 0xff, 0xff, 0xff, 
 0xff, 0xff, 0xff, 0xff, 0x00, 0x00, 0x00, 0x00, 0x01, 0x00, 0x00, 0x00, 
 0x5a, 0xb5, 0x44, 0x3d, 0x44, 0x00, 0x00, 0x00, 0x73, 0x65, 0x71, 0x75, 
 0x65, 0x6e, 0x74, 0x69, 0x61, 0x6c, 0x2f, 0x71, 0x75, 0x61, 0x6e, 0x74, 
 0x69, 0x7a, 0x65, 0x5f, 0x6c, 0x61, 0x79, 0x65, 0x72, 0x2f, 0x41, 0x6c, 
 0x6c, 0x56, 0x61, 0x6c, 0x75, 0x65, 0x73, 0x51, 0x75, 0x61, 0x6e, 0x74, 
 0x69, 0x7a, 0x65, 0x2f, 0x46, 0x61, 0x6b, 0x65, 0x51, 0x75, 0x61, 0x6e, 
 0x74, 0x57, 0x69, 0x74, 0x68, 0x4d, 0x69, 0x6e, 0x4d, 0x61, 0x78, 0x56, 
 0x61, 0x72, 0x73, 0x3b, 0x00, 0x00, 0x00, 0x00, 0x04, 0x00, 0x00, 0x00, 
 0x01, 0x00, 0x00, 0x00, 0x81, 0x00, 0x00, 0x00, 0x7c, 0x00, 0x00, 0x00, 
 0x01, 0x00, 0x00, 0x00, 0xe2, 0xfe, 0xff, 0xff, 0x00, 0x00, 0x00, 0x01, 
 0x14, 0x00, 0x00, 0x00, 0x30, 0x00, 0x00, 0x00, 0x04, 0x00, 0x00, 0x00, 
 0x00, 0x00, 0x00, 0x02, 0x3c, 0x00, 0x00, 0x00, 0xa4, 0xff, 0xff, 0xff, 
 0x08, 0x00, 0x00, 0x00, 0x10, 0x00, 0x00, 0x00, 0x01, 0x00, 0x00, 0x00, 
 0x00, 0x00, 0x00, 0x00, 0x00, 0x00, 0x00, 0x00, 0x01, 0x00, 0x00, 0x00, 
 0xe0, 0x06, 0x69, 0x38, 0x12, 0x00, 0x00, 0x00, 0x74, 0x66, 0x6c, 0x2e, 
 0x70, 0x73, 0x65, 0x75, 0x64, 0x6f, 0x5f, 0x71, 0x63, 0x6f, 0x6e, 0x73, 
 0x74, 0x31, 0x00, 0x00, 0x01, 0x00, 0x00, 0x00, 0x01, 0x00, 0x00, 0x00, 
 0x3e, 0xff, 0xff, 0xff, 0x00, 0x00, 0x00, 0x01, 0x20, 0x00, 0x00, 0x00, 
 0x94, 0x00, 0x00, 0x00, 0x03, 0x00, 0x00, 0x00, 0x00, 0x00, 0x00, 0x02, 
 0xa0, 0x00, 0x00, 0x00, 0x0c, 0x00, 0x0c, 0x00, 0x00, 0x00, 0x00, 0x00, 
 0x08, 0x00, 0x04, 0x00, 0x0c, 0x00, 0x00, 0x00, 0x08, 0x00, 0x00, 0x00, 
 0x4c, 0x00, 0x00, 0x00, 0x08, 0x00, 0x00, 0x00, 0x00, 0x00, 0x00, 0x00, 
 0x00, 0x00, 0x00, 0x00, 0x00, 0x00, 0x00, 0x00, 0x00, 0x00, 0x00, 0x00, 
 0x00, 0x00, 0x00, 0x00, 0x00, 0x00, 0x00, 0x00, 0x00, 0x00, 0x00, 0x00, 
 0x00, 0x00, 0x00, 0x00, 0x00, 0x00, 0x00, 0x00, 0x00, 0x00, 0x00, 0x00, 
 0x00, 0x00, 0x00, 0x00, 0x00, 0x00, 0x00, 0x00, 0x00, 0x00, 0x00, 0x00, 
 0x00, 0x00, 0x00, 0x00, 0x00, 0x00, 0x00, 0x00, 0x00, 0x00, 0x00, 0x00, 
 0x00, 0x00, 0x00, 0x00, 0x08, 0x00, 0x00, 0x00, 0x64, 0x87, 0xeb, 0x37, 
 0x1f, 0xee, 0xfe, 0x37, 0x31, 0x1b, 0xb9, 0x37, 0xe2, 0x70, 0x95, 0x37, 
 0x98, 0x70, 0xd3, 0x37, 0x0c, 0x78, 0xe7, 0x37, 0xa9, 0x8c, 0x01, 0x38, 
 0x15, 0x28, 0xc5, 0x37, 0x11, 0x00, 0x00, 0x00, 0x74, 0x66, 0x6c, 0x2e, 
 0x70, 0x73, 0x65, 0x75, 0x64, 0x6f, 0x5f, 0x71, 0x63, 0x6f, 0x6e, 0x73, 
 0x74, 0x00, 0x00, 0x00, 0x01, 0x00, 0x00, 0x00, 0x08, 0x00, 0x00, 0x00, 
 0x00, 0x00, 0x16, 0x00, 0x1c, 0x00, 0x18, 0x00, 0x17, 0x00, 0x10, 0x00, 
 0x0c, 0x00, 0x08, 0x00, 0x00, 0x00, 0x00, 0x00, 0x00, 0x00, 0x07, 0x00, 
 0x16, 0x00, 0x00, 0x00, 0x00, 0x00, 0x00, 0x01, 0x18, 0x00, 0x00, 0x00, 
 0x18, 0x00, 0x00, 0x00, 0x02, 0x00, 0x00, 0x00, 0x00, 0x00, 0x00, 0x02, 
 0x20, 0x00, 0x00, 0x00, 0x04, 0x00, 0x04, 0x00, 0x04, 0x00, 0x00, 0x00, 
 0x0e, 0x00, 0x00, 0x00, 0x61, 0x72, 0x69, 0x74, 0x68, 0x2e, 0x63, 0x6f, 
 0x6e, 0x73, 0x74, 0x61, 0x6e, 0x74, 0x00, 0x00, 0x01, 0x00, 0x00, 0x00, 
 0x02, 0x00, 0x00, 0x00, 0x07, 0x00, 0x00, 0x00, 0x90, 0x00, 0x00, 0x00, 
 0x70, 0x00, 0x00, 0x00, 0x50, 0x00, 0x00, 0x00, 0x40, 0x00, 0x00, 0x00, 
 0x2c, 0x00, 0x00, 0x00, 0x18, 0x00, 0x00, 0x00, 0x04, 0x00, 0x00, 0x00, 
 0xb4, 0xff, 0xff, 0xff, 0x06, 0x00, 0x00, 0x00, 0x02, 0x00, 0x00, 0x00, 
 0x00, 0x00, 0x00, 0x06, 0xc4, 0xff, 0xff, 0xff, 0x0e, 0x00, 0x00, 0x00, 
 0x02, 0x00, 0x00, 0x00, 0x00, 0x00, 0x00, 0x0e, 0xd4, 0xff, 0xff, 0xff, 
 0x09, 0x00, 0x00, 0x00, 0x04, 0x00, 0x00, 0x00, 0x00, 0x00, 0x00, 0x09, 
 0xc8, 0xff, 0xff, 0xff, 0x16, 0x00, 0x00, 0x00, 0x00, 0x00, 0x00, 0x16, 
 0xf0, 0xff, 0xff, 0xff, 0x11, 0x00, 0x00, 0x00, 0x02, 0x00, 0x00, 0x00, 
 0x00, 0x00, 0x00, 0x11, 0x0c, 0x00, 0x10, 0x00, 0x0f, 0x00, 0x00, 0x00, 
 0x08, 0x00, 0x04, 0x00, 0x0c, 0x00, 0x00, 0x00, 0x03, 0x00, 0x00, 0x00, 
 0x03, 0x00, 0x00, 0x00, 0x00, 0x00, 0x00, 0x03, 0x0c, 0x00, 0x0c, 0x00, 
 0x0b, 0x00, 0x00, 0x00, 0x00, 0x00, 0x04, 0x00, 0x0c, 0x00, 0x00, 0x00, 
 0x72, 0x00, 0x00, 0x00, 0x00, 0x00, 0x00, 0x72
};

const int qat_model_len = 6704;

#endif 
